{
  "version": "1.0",
  "truncation": null,
  "padding": null,
  "added_tokens": [
    {
      "id": 0,
      "content": "<unk>",
      "single_word": false,
      "lstrip": false,
      "rstrip": false,
      "normalized": false,
      "special": true
    },
    {
      "id": 1,
      "content": "<pad>",
      "single_word": false,
      "lstrip": false,
      "rstrip": false,
      "normalized": false,
      "special": true
    },
    {
      "id": 2,
      "content": "<bos>",
      "single_word": false,
      "lstrip": false,
      "rstrip": false,
      "normalized": false,
      "special": true
    },
    {
      "id": 3,
      "content": "<eos>",
      "single_word": false,
      "lstrip": false,
      "rstrip": false,
      "normalized": false,
      "special": true
    }
  ],
  "normalizer": {
    "type": "Sequence",
    "normalizers": [
      {
        "type": "NFC"
      }
    ]
  },
  "pre_tokenizer": {
    "type": "ByteLevel",
    "add_prefix_space": false,
    "trim_offsets": true,
    "use_regex": true
  },
  "post_processor": null,
  "decoder": {
    "type": "ByteLevel",
    "add_prefix_space": true,
    "trim_offsets": true,
    "use_regex": true
  },
  "model": {
    "type": "BPE",
    "dropout": null,
    "unk_token": "<unk>",
    "continuing_subword_prefix": null,
    "end_of_word_suffix": null,
    "fuse_unk": false,
    "byte_fallback": false,
    "ignore_merges": false,
    "vocab": {
      "<unk>": 0,
      "<pad>": 1,
      "<bos>": 2,
      "<eos>": 3,
      "!": 4,
      "\"": 5,
      "#": 6,
      "$": 7,
      "%": 8,
      "&": 9,
      "'": 10,
      "(": 11,
      ")": 12,
      "*": 13,
      "+": 14,
      ",": 15,
      "-": 16,
      ".": 17,
      "/": 18,
      "0": 19,
      "1": 20,
      "2": 21,
      "3": 22,
      "4": 23,
      "5": 24,
      "6": 25,
      "7": 26,
      "8": 27,
      "9": 28,
      ":": 29,
      ";": 30,
      "<": 31,
      "=": 32,
      ">": 33,
      "?": 34,
      "@": 35,
      "A": 36,
      "B": 37,
      "C": 38,
      "D": 39,
      "E": 40,
      "F": 41,
      "G": 42,
      "H": 43,
      "I": 44,
      "J": 45,
      "K": 46,
      "L": 47,
      "M": 48,
      "N": 49,
      "O": 50,
      "P": 51,
      "Q": 52,
      "R": 53,
      "S": 54,
      "T": 55,
      "U": 56,
      "V": 57,
      "W": 58,
      "X": 59,
      "Y": 60,
      "Z": 61,
      "[": 62,
      "\\": 63,
      "]": 64,
      "^": 65,
      "_": 66,
      "`": 67,
      "a": 68,
      "b": 69,
      "c": 70,
      "d": 71,
      "e": 72,
      "f": 73,
      "g": 74,
      "h": 75,
      "i": 76,
      "j": 77,
      "k": 78,
      "l": 79,
      "m": 80,
      "n": 81,
      "o": 82,
      "p": 83,
      "q": 84,
      "r": 85,
      "s": 86,
      "t": 87,
      "u": 88,
      "v": 89,
      "w": 90,
      "x": 91,
      "y": 92,
      "z": 93,
      "{": 94,
      "|": 95,
      "}": 96,
      "~": 97,
      "¡": 98,
      "¢": 99,
      "£": 100,
      "¤": 101,
      "¥": 102,
      "¦": 103,
      "§": 104,
      "¨": 105,
      "©": 106,
      "ª": 107,
      "«": 108,
      "¬": 109,
      "®": 110,
      "¯": 111,
      "°": 112,
      "±": 113,
      "²": 114,
      "³": 115,
      "´": 116,
      "µ": 117,
      "¶": 118,
      "·": 119,
      "¸": 120,
      "¹": 121,
      "º": 122,
      "»": 123,
      "¼": 124,
      "½": 125,
      "¾": 126,
      "¿": 127,
      "À": 128,
      "Á": 129,
      "Â": 130,
      "Ã": 131,
      "Ä": 132,
      "Å": 133,
      "Æ": 134,
      "Ç": 135,
      "È": 136,
      "É": 137,
      "Ê": 138,
      "Ë": 139,
      "Ì": 140,
      "Í": 141,
      "Î": 142,
      "Ï": 143,
      "Ð": 144,
      "Ñ": 145,
      "Ò": 146,
      "Ó": 147,
      "Ô": 148,
      "Õ": 149,
      "Ö": 150,
      "×": 151,
      "Ø": 152,
      "Ù": 153,
      "Ú": 154,
      "Û": 155,
      "Ü": 156,
      "Ý": 157,
      "Þ": 158,
      "ß": 159,
      "à": 160,
      "á": 161,
      "â": 162,
      "ã": 163,
      "ä": 164,
      "å": 165,
      "æ": 166,
      "ç": 167,
      "è": 168,
      "é": 169,
      "ê": 170,
      "ë": 171,
      "ì": 172,
      "í": 173,
      "î": 174,
      "ï": 175,
      "ð": 176,
      "ñ": 177,
      "ò": 178,
      "ó": 179,
      "ô": 180,
      "õ": 181,
      "ö": 182,
      "÷": 183,
      "ø": 184,
      "ù": 185,
      "ú": 186,
      "û": 187,
      "ü": 188,
      "ý": 189,
      "þ": 190,
      "ÿ": 191,
      "Ā": 192,
      "ā": 193,
      "Ă": 194,
      "ă": 195,
      "Ą": 196,
      "ą": 197,
      "Ć": 198,
      "ć": 199,
      "Ĉ": 200,
      "ĉ": 201,
      "Ċ": 202,
      "ċ": 203,
      "Č": 204,
      "č": 205,
      "Ď": 206,
      "ď": 207,
      "Đ": 208,
      "đ": 209,
      "Ē": 210,
      "ē": 211,
      "Ĕ": 212,
      "ĕ": 213,
      "Ė": 214,
      "ė": 215,
      "Ę": 216,
      "ę": 217,
      "Ě": 218,
      "ě": 219,
      "Ĝ": 220,
      "ĝ": 221,
      "Ğ": 222,
      "ğ": 223,
      "Ġ": 224,
      "ġ": 225,
      "Ģ": 226,
      "ģ": 227,
      "Ĥ": 228,
      "ĥ": 229,
      "Ħ": 230,
      "ħ": 231,
      "Ĩ": 232,
      "ĩ": 233,
      "Ī": 234,
      "ī": 235,
      "Ĭ": 236,
      "ĭ": 237,
      "Į": 238,
      "į": 239,
      "İ": 240,
      "ı": 241,
      "Ĳ": 242,
      "ĳ": 243,
      "Ĵ": 244,
      "ĵ": 245,
      "Ķ": 246,
      "ķ": 247,
      "ĸ": 248,
      "Ĺ": 249,
      "ĺ": 250,
      "Ļ": 251,
      "ļ": 252,
      "Ľ": 253,
      "ľ": 254,
      "Ŀ": 255,
      "ŀ": 256,
      "Ł": 257,
      "ł": 258,
      "Ń": 259,
      "is": 260,
      "he": 261,
      "Ġis": 262,
      "Ġc": 263,
      "on": 264,
      "re": 265,
      "Ġt": 266,
      "in": 267,
      "er": 268,
      "an": 269,
      "es": 270,
      "al": 271,
      "at": 272,
      "ĠT": 273,
      "en": 274,
      "ti": 275,
      "ĠThe": 276,
      "ĠA": 277,
      "sw": 278,
      "as": 279,
      "swer": 280,
      "it": 281,
      "tion": 282,
      "ing": 283,
      "Ġo": 284,
      "ĠW": 285,
      "Ġthe": 286,
      "Ġf": 287,
      "id": 288,
      "ĠWh": 289,
      "Ġth": 290,
      "ĠAn": 291,
      "ĠS": 292,
      "ĠAnswer": 293,
      "Ġa": 294,
      "Qu": 295,
      "Ġs": 296,
      "estion": 297,
      "Question": 298,
      "ap": 299,
      "Ġof": 300,
      "ic": 301,
      "ĠWhat": 302,
      "le": 303,
      "oning": 304,
      "asoning": 305,
      "Ġcap": 306,
      "ital": 307,
      "Ġcapital": 308,
      "ro": 309,
      "Ġan": 310,
      "ol": 311,
      "Ġ1": 312,
      "ent": 313,
      "Ġv": 314,
      "ce": 315,
      "ain": 316,
      "ar": 317,
      "ct": 318,
      "or": 319,
      "Ġre": 320,
      "lem": 321,
      "Ġp": 322,
      "ĠI": 323,
      "ĠC": 324,
      "Ġd": 325,
      "ence": 326,
      "Re": 327,
      "Ġch": 328,
      "idence": 329,
      "Ġanswer": 330,
      "Ġthis": 331,
      "ore": 332,
      "ĠTh": 333,
      "Ġm": 334,
      "Ġchain": 335,
      "ity": 336,
      "ĠThis": 337,
      "ution": 338,
      "olution": 339,
      "fore": 340,
      "im": 341,
      "ĠThere": 342,
      "Ġe": 343,
      "se": 344,
      "rob": 345,
      "Prob": 346,
      "Ġ=": 347,
      "alid": 348,
      "ĠSolution": 349,
      "Ġvalid": 350,
      "Ġreasoning": 351,
      "Reasoning": 352,
      "ĠTherefore": 353,
      "Problem": 354,
      "Ġcity": 355,
      "et": 356,
      "Ġh": 357,
      "Ġin": 358,
      "ll": 359,
      "lan": 360,
      "Ġ5": 361,
      "act": 362,
      "Ġ-": 363,
      "Ġw": 364,
      "un": 365,
      "Ġl": 366,
      "ment": 367,
      "us": 368,
      "vidence": 369,
      "Ġcan": 370,
      "Ġb": 371,
      "Ġ3": 372,
      "Ġ2": 373,
      "mb": 374,
      "reat": 375,
      "ism": 376,
      "ert": 377,
      "anism": 378,
      "no": 379,
      "om": 380,
      "ĠM": 381,
      "Ġ*": 382,
      "Ġ+": 383,
      "Ġthan": 384,
      "Ġ6": 385,
      "ĠE": 386,
      "Ġor": 387,
      "Ġare": 388,
      "ter": 389,
      "ure": 390,
      "Ġtr": 391,
      "est": 392,
      "ganism": 393,
      "Ġ7": 394,
      "Ġ8": 395,
      "ate": 396,
      "Ġorganism": 397,
      "aster": 398,
      "Ġfaster": 399,
      "Ġcreat": 400,
      "onf": 401,
      "Ġfor": 402,
      "Ġcreature": 403,
      "Ġ9": 404,
      "Ġst": 405,
      "ĠN": 406,
      "Ġplan": 407,
      "Fact": 408,
      "th": 409,
      "ĠWhic": 410,
      "ĠWhich": 411,
      "ue": 412,
      "als": 413,
      "ed": 414,
      "Ġorganisms": 415,
      "Ġli": 416,
      "Ġ4": 417,
      "ĠB": 418,
      "ates": 419,
      "Ġtrue": 420,
      "ch": 421,
      "il": 422,
      "ve": 423,
      "Ġsy": 424,
      "br": 425,
      "ebr": 426,
      "ia": 427,
      "ur": 428,
      "alse": 429,
      "Ġfalse": 430,
      "Ġvert": 431,
      "ĠConf": 432,
      "ebrates": 433,
      "Ġvertebrates": 434,
      "ess": 435,
      "not": 436,
      "ss": 437,
      "hem": 438,
      "ats": 439,
      "ical": 440,
      "lement": 441,
      "Ġevidence": 442,
      "ĠR": 443,
      "ving": 444,
      "Ġchem": 445,
      "ings": 446,
      "ĠIs": 447,
      "mbol": 448,
      "Ġsymbol": 449,
      "Ġchemical": 450,
      "fic": 451,
      "ĠP": 452,
      "Ġat": 453,
      "ĠAll": 454,
      "Yes": 455,
      "am": 456,
      "ds": 457,
      "gh": 458,
      "Ġn": 459,
      "ĠYes": 460,
      "Ġthings": 461,
      "atement": 462,
      "Ġliving": 463,
      "Ġhas": 464,
      "Ġcats": 465,
      "Ġmo": 466,
      "ab": 467,
      "Evidence": 468,
      "the": 469,
      "ĠAss": 470,
      "Ġanim": 471,
      "ĠConfidence": 472,
      "essment": 473,
      "ĠAssessment": 474,
      "ci": 475,
      "um": 476,
      "Ġdo": 477,
      "ir": 478,
      "ish": 479,
      "Ġthen": 480,
      "ĠIf": 481,
      "Ġcreatures": 482,
      "Ġplanet": 483,
      "ion": 484,
      "aus": 485,
      "Ġfish": 486,
      "Ġ15": 487,
      "ĠG": 488,
      "Ġcl": 489,
      "Ġcannot": 490,
      "ell": 491,
      "ud": 492,
      "ĠU": 493,
      "Ġcor": 494,
      "rect": 495,
      "Ġcorrect": 496,
      "umb": 497,
      "ĠH": 498,
      "Ġfact": 499,
      "Ġnumb": 500,
      "Ġnumber": 501,
      "00": 502,
      "pp": 503,
      "ĠD": 504,
      "enti": 505,
      "ther": 506,
      "Ġanimals": 507,
      "ad": 508,
      "ec": 509,
      "ies": 510,
      "ow": 511,
      "ts": 512,
      "Ġto": 513,
      "land": 514,
      "estab": 515,
      "mals": 516,
      "Ġhe": 517,
      "Ġal": 518,
      "ĠIn": 519,
      "Ġmam": 520,
      "Ġmammals": 521,
      "ac": 522,
      "lis": 523,
      "hed": 524,
      "Ġsci": 525,
      "cts": 526,
      "Ġwell": 527,
      "entific": 528,
      "establis": 529,
      "Ġscientific": 530,
      "established": 531,
      "ay": 532,
      "aim": 533,
      "gs": 534,
      "igh": 535,
      "ou": 536,
      "ons": 537,
      "Ġother": 538,
      "ĠSt": 539,
      "arth": 540,
      "ort": 541,
      "Ġrep": 542,
      "ĠEarth": 543,
      "Ġdogs": 544,
      "Ġclaim": 545,
      "udies": 546,
      ").": 547,
      "Ġ(": 548,
      "Ġelement": 549,
      "Ġatom": 550,
      "OR": 551,
      "les": 552,
      "Ġcaus": 553,
      "tiles": 554,
      "ĠSun": 555,
      "Ġand": 556,
      "Ġpet": 557,
      "ĠCO": 558,
      "sects": 559,
      "Ġinsects": 560,
      "Ġplants": 561,
      "Ġreptiles": 562,
      "Ġcauses": 563,
      "ium": 564,
      "pen": 565,
      "Ġk": 566,
      "ĠElement": 567,
      "ĠNo": 568,
      "Ġatomic": 569,
      "AD": 570,
      "CT": 571,
      "ICT": 572,
      "NT": 573,
      "RAD": 574,
      "Ġ'": 575,
      "ĠL": 576,
      "ation": 577,
      "ĠThese": 578,
      "Ġ14": 579,
      "arg": 580,
      "ertain": 581,
      "Ġstatement": 582,
      "ĠCONT": 583,
      "RADICT": 584,
      "Ġstatements": 585,
      "ĠCONTRADICT": 586,
      "Ġr": 587,
      "Ġcon": 588,
      "reas": 589,
      "any": 590,
      "alk": 591,
      "rov": 592,
      "ave": 593,
      "el": 594,
      "Ġle": 595,
      "ater": 596,
      "Ġ100": 597,
      "Ġlarg": 598,
      "Ġbe": 599,
      "Ġbir": 600,
      "now": 601,
      "omp": 602,
      "Ġknow": 603,
      "Ġbirds": 604,
      "gen": 605,
      "tr": 606,
      "yp": 607,
      "are": 608,
      "ly": 609,
      "os": 610,
      "st": 611,
      "way": 612,
      "ĠRe": 613,
      "Ġfro": 614,
      "Ġthat": 615,
      "Ġsu": 616,
      "appen": 617,
      "Ġ11": 618,
      "Ġde": 619,
      "Ġhappen": 620,
      "und": 621,
      "ome": 622,
      "ĠMe": 623,
      "ury": 624,
      "Ġmoons": 625,
      "Ġlargest": 626,
      "Ġknown": 627,
      "Ġfrom": 628,
      "gn": 629,
      "ill": 630,
      "Ġim": 631,
      "hen": 632,
      "tive": 633,
      "ĠWhen": 634,
      "Ġ12": 635,
      "Ġ18": 636,
      "Ġdid": 637,
      "Ġwas": 638,
      "pport": 639,
      "du": 640,
      "ear": 641,
      "lic": 642,
      "ra": 643,
      "ĠV": 644,
      "Ġg": 645,
      "Ġnot": 646,
      "Ġconf": 647,
      "erc": 648,
      "Ġper": 649,
      "ĠCh": 650,
      "eter": 651,
      "Ġ59": 652,
      "unc": 653,
      "irm": 654,
      "Ġall": 655,
      "ĠInd": 656,
      "Ġconfirm": 657,
      "40": 658,
      "ep": 659,
      "ise": 660,
      "ance": 661,
      "ĠSome": 662,
      "Ġprov": 663,
      "ustr": 664,
      "Ġprovid": 665,
      "'t": 666,
      "ED": 667,
      "EF": 668,
      "ES": 669,
      "IX": 670,
      "PP": 671,
      "TS": 672,
      "TES": 673,
      "UPP": 674,
      "UTES": 675,
      "bou": 676,
      "der": 677,
      "ffic": 678,
      "hat": 679,
      "how": 680,
      "oc": 681,
      "ot": 682,
      "ugh": 683,
      "ĠF": 684,
      "ĠJ": 685,
      "ĠK": 686,
      "Ġon": 687,
      "Ġsw": 688,
      "Ġunc": 689,
      "Ġcent": 690,
      "esear": 691,
      "Ġthro": 692,
      "ĠSUPP": 693,
      "Ġabou": 694,
      "Ġshow": 695,
      "Ġ13": 696,
      "Ġ17": 697,
      "art": 698,
      "Ġdon": 699,
      "Ġhigh": 700,
      "Ġhave": 701,
      "Ġ53": 702,
      "Ġ54": 703,
      "Ġ32": 704,
      "Ġ21": 705,
      "ĠMIX": 706,
      "Ġ80": 707,
      "Ġstudies": 708,
      "ĠREF": 709,
      "ĠResear": 710,
      "Ġmoder": 711,
      "Ġalway": 712,
      "ight": 713,
      "Ġothers": 714,
      "ĠStudies": 715,
      "ORTS": 716,
      "Ġcont": 717,
      "reases": 718,
      "ompare": 719,
      "Ġsupport": 720,
      "Ġswim": 721,
      "Ġuncertain": 722,
      "Ġthrough": 723,
      "ĠSUPPORTS": 724,
      "Ġabout": 725,
      "Ġshows": 726,
      "ĠMIXED": 727,
      "ĠREFUTES": 728,
      "ĠResearch": 729,
      "Ġmoderate": 730,
      "Ġalways": 731,
      "em": 732,
      "fe": 733,
      "itive": 734,
      "oil": 735,
      "ul": 736,
      "xy": 737,
      "ina": 738,
      "ith": 739,
      "Ġmany": 740,
      "Ġinc": 741,
      "ĠGre": 742,
      "ack": 743,
      "Ġimp": 744,
      "'.": 745,
      "'s": 746,
      "Caus": 747,
      "Compare": 748,
      "St": 749,
      "What": 750,
      "ai": 751,
      "ach": 752,
      "ads": 753,
      "sia": 754,
      "ĠO": 755,
      "Ġtalk": 756,
      "Ġtyp": 757,
      "inent": 758,
      "ĠAustr": 759,
      "old": 760,
      "Ġ10": 761,
      "Ġvs": 762,
      "ars": 763,
      "Ġeach": 764,
      "Ġ52": 765,
      "Ġwater": 766,
      "Ġ30": 767,
      "Ġ26": 768,
      "Ġ66": 769,
      "Ġ74": 770,
      "Ġ81": 771,
      "Ġ96": 772,
      "chanism": 773,
      "ĠConflic": 774,
      "Ġdoes": 775,
      "ĠStatement": 776,
      "ORY": 777,
      "ĠCONTRADICTORY": 778,
      "Ġleads": 779,
      "ĠMechanism": 780,
      "duc": 781,
      "ffici": 782,
      "Ġcontinent": 783,
      "Causal": 784,
      "Statement": 785,
      "Ġtype": 786,
      "ĠConflict": 787,
      "bon": 788,
      "vity": 789,
      "ines": 790,
      "ĠSo": 791,
      "ĠSil": 792,
      "Ġ16": 793,
      "ary": 794,
      "ĠIt": 795,
      "Ġdec": 796,
      "Ġwalk": 797,
      "une": 798,
      "Ġ47": 799,
      "ĠPh": 800,
      "Ġcentury": 801,
      "AI": 802,
      "CE": 803,
      "NCE": 804,
      "RT": 805,
      "The": 806,
      "ew": 807,
      "eat": 808,
      "fin": 809,
      "lo": 810,
      "mp": 811,
      "min": 812,
      "ron": 813,
      "ric": 814,
      "si": 815,
      "su": 816,
      "ty": 817,
      "ug": 818,
      "ver": 819,
      "ĠZ": 820,
      "Ġcertain": 821,
      "ond": 822,
      "ones": 823,
      "and": 824,
      "alth": 825,
      "ase": 826,
      "Ġfly": 827,
      "ĠSw": 828,
      "Ġse": 829,
      "rogen": 830,
      "round": 831,
      "arn": 832,
      "orm": 833,
      "ĠCo": 834,
      "Ġdeter": 835,
      "Ġwith": 836,
      "Ġbu": 837,
      "Ġbreat": 838,
      "Ġ33": 839,
      "Ġ36": 840,
      "Ġ39": 841,
      "Ġ24": 842,
      "Ġ61": 843,
      "Ġ62": 844,
      "Ġ65": 845,
      "Ġ72": 846,
      "Ġ78": 847,
      "Ġ87": 848,
      "Ġ91": 849,
      "Ġ93": 850,
      "Ġ98": 851,
      "Ġ40": 852,
      "Ġ42": 853,
      "ilt": 854,
      "Ġmove": 855,
      "Ġanimal": 856,
      "ĠUNCE": 857,
      "ĠHow": 858,
      "Ġhear": 859,
      "ĠInsu": 860,
      "Ġris": 861,
      "ĠRev": 862,
      "Ġdefin": 863,
      "Ġprovide": 864,
      "fficient": 865,
      "AIN": 866,
      "RTAIN": 867,
      "mined": 868,
      "Ġcertainty": 869,
      "Ġdetermined": 870,
      "Ġbreathe": 871,
      "ĠUNCERTAIN": 872,
      "ĠInsufficient": 873,
      "Ġdefinitive": 874,
      "ece": 875,
      "ge": 876,
      "ger": 877,
      "gyp": 878,
      "ire": 879,
      "iet": 880,
      "ran": 881,
      "to": 882,
      "xerc": 883,
      "her": 884,
      "ren": 885,
      "int": 886,
      "all": 887,
      "aly": 888,
      "enh": 889,
      "ĠAm": 890,
      "Ġsle": 891,
      "Ġsun": 892,
      "led": 893,
      "Ġvac": 894,
      "imate": 895,
      "Ġinto": 896,
      "Ġ50": 897,
      "Ġ25": 898,
      "Ġ28": 899,
      "oman": 900,
      "ĠMo": 901,
      "ĠMerc": 902,
      "ĠEgyp": 903,
      "ĠBr": 904,
      "ĠRoman": 905,
      "ĠUran": 906,
      "Ġhealth": 907,
      "ĠChina": 908,
      "xygen": 909,
      "ĠGreece": 910,
      "ĠItaly": 911,
      "xercise": 912,
      "Ġsleep": 913,
      "ĠMercury": 914,
      "ĠEgypt": 915,
      "49": 916,
      "ak": 917,
      "agn": 918,
      "ey": 919,
      "form": 920,
      "gan": 921,
      "ile": 922,
      "ign": 923,
      "ls": 924,
      "pe": 925,
      "pit": 926,
      "rain": 927,
      "ub": 928,
      "ut": 929,
      "ual": 930,
      "upit": 931,
      "xic": 932,
      "Ġno": 933,
      "Ġcomp": 934,
      "ress": 935,
      "Ġtim": 936,
      "alia": 937,
      "atur": 938,
      "enus": 939,
      "ingap": 940,
      "ĠWar": 941,
      "ĠWater": 942,
      "ĠSp": 943,
      "ĠSou": 944,
      "ĠSatur": 945,
      "ĠSingap": 946,
      "Ġaround": 947,
      "Ġso": 948,
      "Ġsec": 949,
      "Ġsign": 950,
      "lect": 951,
      "Ġ19": 952,
      "cean": 953,
      "Ġpro": 954,
      "ĠCan": 955,
      "Ġdr": 956,
      "Ġdise": 957,
      "Ġmeter": 958,
      "Ġhot": 959,
      "Ġ51": 960,
      "Ġ56": 961,
      "Ġ57": 962,
      "Ġ58": 963,
      "Ġboil": 964,
      "Ġ31": 965,
      "Ġ34": 966,
      "Ġ22": 967,
      "Ġ29": 968,
      "omes": 969,
      "ĠMars": 970,
      "ĠMagn": 971,
      "Ġ67": 972,
      "Ġtrave": 973,
      "Ġ70": 974,
      "Ġ71": 975,
      "Ġ82": 976,
      "Ġ92": 977,
      "ĠNor": 978,
      "ĠNew": 979,
      "ili": 980,
      "cient": 981,
      "ade": 982,
      "roves": 983,
      "Ġlearn": 984,
      "Ġbegan": 985,
      "ĠMexic": 986,
      "ravity": 987,
      "ĠVenus": 988,
      "Ġperform": 989,
      "ĠJupit": 990,
      "Ġincreases": 991,
      "Ġimproves": 992,
      "ĠAustralia": 993,
      "Ġdecreases": 994,
      "Ġsee": 995,
      "Ġbuilt": 996,
      "ĠRevolution": 997,
      "ĠSaturn": 998,
      "ĠSingapore": 999,
      "Ġsecond": 1000,
      "Ġsigned": 1001,
      "Ġdisease": 1002,
      "Ġmeters": 1003,
      "Ġboils": 1004,
      "ĠMexico": 1005,
      "Ġperformance": 1006,
      "ĠJupiter": 1007,
      "15": 1008,
      "45": 1009,
      "60": 1010,
      "69": 1011,
      "ber": 1012,
      "cc": 1013,
      "ces": 1014,
      "cines": 1015,
      "ech": 1016,
      "ead": 1017,
      "light": 1018,
      "lack": 1019,
      "mune": 1020,
      "ok": 1021,
      "iss": 1022,
      "red": 1023,
      "ange": 1024,
      "itrogen": 1025,
      "olo": 1026,
      "ark": 1027,
      "arbon": 1028,
      "ĠIce": 1029,
      "Ġchange": 1030,
      "Ġmus": 1031,
      "Ġmed": 1032,
      "Ġexercise": 1033,
      "Ġwill": 1034,
      "Ġstron": 1035,
      "Ġlife": 1036,
      "ĠBlack": 1037,
      "Ġsyst": 1038,
      "able": 1039,
      "ions": 1040,
      "ĠGreat": 1041,
      "ĠGold": 1042,
      "ĠHel": 1043,
      "pper": 1044,
      "acy": 1045,
      "Ġ146": 1046,
      "Ġrain": 1047,
      "osp": 1048,
      "Ġ1215": 1049,
      "Ġprovides": 1050,
      "Ġ177": 1051,
      "arta": 1052,
      "Ġincreas": 1053,
      "ĠCopper": 1054,
      "rench": 1055,
      "Ġsunlight": 1056,
      "Ġvaccines": 1057,
      "ĠMoon": 1058,
      "Ġsystem": 1059,
      "25": 1060,
      "92": 1061,
      "aw": 1062,
      "ace": 1063,
      "co": 1064,
      "cle": 1065,
      "eal": 1066,
      "ect": 1067,
      "eet": 1068,
      "ff": 1069,
      "face": 1070,
      "gre": 1071,
      "gent": 1072,
      "gium": 1073,
      "gary": 1074,
      "iv": 1075,
      "iger": 1076,
      "ja": 1077,
      "key": 1078,
      "krain": 1079,
      "lin": 1080,
      "many": 1081,
      "mark": 1082,
      "ns": 1083,
      "nam": 1084,
      "od": 1085,
      "oint": 1086,
      "pub": 1087,
      "rance": 1088,
      "rgent": 1089,
      "tan": 1090,
      "tune": 1091,
      "vert": 1092,
      "ximate": 1093,
      "ya": 1094,
      "zer": 1095,
      "zes": 1096,
      "zil": 1097,
      "zech": 1098,
      "Ġ0": 1099,
      "Ġic": 1100,
      "Ġro": 1101,
      "istan": 1102,
      "here": 1103,
      "Ġco": 1104,
      "reland": 1105,
      "inland": 1106,
      "eru": 1107,
      "ermany": 1108,
      "ano": 1109,
      "alay": 1110,
      "ĠTur": 1111,
      "enue": 1112,
      "enmark": 1113,
      "enya": 1114,
      "ĠAl": 1115,
      "ĠArgent": 1116,
      "its": 1117,
      "itzer": 1118,
      "Ġoxygen": 1119,
      "Ġocean": 1120,
      "ide": 1121,
      "ĠSe": 1122,
      "Ġapp": 1123,
      "Ġsur": 1124,
      "Ġsoil": 1125,
      "Ġspe": 1126,
      "apan": 1127,
      "roximate": 1128,
      "oland": 1129,
      "ents": 1130,
      "ara": 1131,
      "Ġres": 1132,
      "Ġpoint": 1133,
      "ĠIreland": 1134,
      "ĠCel": 1135,
      "ĠColo": 1136,
      "ĠCzech": 1137,
      "orea": 1138,
      "ĠThai": 1139,
      "Ġmet": 1140,
      "Ġmeet": 1141,
      "forest": 1142,
      "Ġelect": 1143,
      "sed": 1144,
      "ether": 1145,
      "Ġinv": 1146,
      "lands": 1147,
      "Ġ55": 1148,
      "unt": 1149,
      "ungary": 1150,
      "ussia": 1151,
      "Ġ37": 1152,
      "Ġ38": 1153,
      "Ġ20": 1154,
      "mbia": 1155,
      "ĠMalay": 1156,
      "Ġ60": 1157,
      "Ġ68": 1158,
      "Ġ69": 1159,
      "ĠEmp": 1160,
      "Ġ73": 1161,
      "Ġ75": 1162,
      "Ġ83": 1163,
      "Ġ86": 1164,
      "Ġ89": 1165,
      "Ġ90": 1166,
      "Ġ97": 1167,
      "Ġstud": 1168,
      "ĠNep": 1169,
      "ĠNiger": 1170,
      "ĠNether": 1171,
      "eden": 1172,
      "Ġligh": 1173,
      "Ġ46": 1174,
      "ĠBu": 1175,
      "ĠBer": 1176,
      "ĠBel": 1177,
      "ĠBra": 1178,
      "ĠRussia": 1179,
      "ĠPM": 1180,
      "ĠPort": 1181,
      "ĠPak": 1182,
      "ĠPeru": 1183,
      "ĠPoland": 1184,
      "thens": 1185,
      "ĠGermany": 1186,
      "ĠUK": 1187,
      "ĠUkrain": 1188,
      "ĠHungary": 1189,
      "Ġfactual": 1190,
      "ppines": 1191,
      "ĠDenmark": 1192,
      "thern": 1193,
      "ada": 1194,
      "ective": 1195,
      "Ġheat": 1196,
      "Ġheart": 1197,
      "ouse": 1198,
      "ĠRepub": 1199,
      "Ġdegre": 1200,
      "Ġimmune": 1201,
      "ĠViet": 1202,
      "Ġgravity": 1203,
      "ĠChile": 1204,
      "ĠIndia": 1205,
      "ĠIndones": 1206,
      "ĠFrance": 1207,
      "ĠFinland": 1208,
      "ĠJapan": 1209,
      "ĠKenya": 1210,
      "ĠKorea": 1211,
      "Ġ3240": 1212,
      "ĠAustria": 1213,
      "ducation": 1214,
      "ĠPhili": 1215,
      "sius": 1216,
      "ugal": 1217,
      "ĠZeal": 1218,
      "ĠSwitzer": 1219,
      "ĠSweden": 1220,
      "enhouse": 1221,
      "ĠRomania": 1222,
      "ĠUranus": 1223,
      "Ġcompany": 1224,
      "Ġtime": 1225,
      "ĠSpain": 1226,
      "ĠSouth": 1227,
      "Ġsound": 1228,
      "ĠCanada": 1229,
      "Ġdrug": 1230,
      "Ġtravels": 1231,
      "ĠNorway": 1232,
      "ĠIceland": 1233,
      "ffective": 1234,
      "Ġice": 1235,
      "ĠTurkey": 1236,
      "ĠArgentina": 1237,
      "Ġapproximate": 1238,
      "Ġsurface": 1239,
      "Ġspeed": 1240,
      "ĠCelsius": 1241,
      "ĠColombia": 1242,
      "ĠThailand": 1243,
      "Ġmeeting": 1244,
      "Ġelectric": 1245,
      "ĠMalaysia": 1246,
      "Ġstudents": 1247,
      "ĠNeptune": 1248,
      "ĠNigeria": 1249,
      "ĠNetherlands": 1250,
      "Ġlight": 1251,
      "ĠBelgium": 1252,
      "ĠBrazil": 1253,
      "ĠPortugal": 1254,
      "ĠPakistan": 1255,
      "ĠUkraine": 1256,
      "ĠRepublic": 1257,
      "Ġdegrees": 1258,
      "ĠVietnam": 1259,
      "ĠIndonesia": 1260,
      "ĠPhilippines": 1261,
      "ĠZealand": 1262,
      "ĠSwitzerland": 1263,
      "Ġapproximately": 1264,
      "89": 1265,
      "SA": 1266,
      "afe": 1267,
      "aiss": 1268,
      "bal": 1269,
      "ction": 1270,
      "comes": 1271,
      "dence": 1272,
      "ded": 1273,
      "dium": 1274,
      "drogen": 1275,
      "ex": 1276,
      "een": 1277,
      "epen": 1278,
      "fit": 1279,
      "fur": 1280,
      "ffe": 1281,
      "ful": 1282,
      "gin": 1283,
      "gar": 1284,
      "hor": 1285,
      "ial": 1286,
      "iti": 1287,
      "igin": 1288,
      "ld": 1289,
      "lp": 1290,
      "lar": 1291,
      "lor": 1292,
      "mful": 1293,
      "nion": 1294,
      "nect": 1295,
      "oad": 1296,
      "per": 1297,
      "ram": 1298,
      "rint": 1299,
      "racy": 1300,
      "sen": 1301,
      "viet": 1302,
      "ween": 1303,
      "yment": 1304,
      "ydrogen": 1305,
      "yram": 1306,
      "Ġer": 1307,
      "Ġen": 1308,
      "Ġess": 1309,
      "Ġland": 1310,
      "Ġenh": 1311,
      "Ġtem": 1312,
      "inc": 1313,
      "ine": 1314,
      "inum": 1315,
      "eric": 1316,
      "ant": 1317,
      "ances": 1318,
      "esium": 1319,
      "ature": 1320,
      "enber": 1321,
      "enaiss": 1322,
      "tivity": 1323,
      "ĠAD": 1324,
      "ast": 1325,
      "asing": 1326,
      "itain": 1327,
      "itam": 1328,
      "itation": 1329,
      "Ġopport": 1330,
      "Ġover": 1331,
      "Ġout": 1332,
      "Ġocc": 1333,
      "ĠWor": 1334,
      "ĠWest": 1335,
      "ĠWill": 1336,
      "ĠWall": 1337,
      "Ġfell": 1338,
      "Ġfoc": 1339,
      "Ġfight": 1340,
      "ids": 1341,
      "ĠAncient": 1342,
      "ĠSul": 1343,
      "Ġaffe": 1344,
      "Ġsafe": 1345,
      "icon": 1346,
      "Ġancient": 1347,
      "ented": 1348,
      "Ġvoc": 1349,
      "Ġvitam": 1350,
      "armful": 1351,
      "orsen": 1352,
      "Ġreal": 1353,
      "Ġread": 1354,
      "Ġreduc": 1355,
      "Ġpow": 1356,
      "Ġpress": 1357,
      "Ġprint": 1358,
      "Ġpyram": 1359,
      "ĠII": 1360,
      "ĠIron": 1361,
      "ĠCold": 1362,
      "ĠCarbon": 1363,
      "ĠCarta": 1364,
      "Ġmon": 1365,
      "Ġmel": 1366,
      "Ġmill": 1367,
      "etween": 1368,
      "Ġharmful": 1369,
      "Ġweat": 1370,
      "Ġworsen": 1371,
      "uniti": 1372,
      "Ġlo": 1373,
      "Ġby": 1374,
      "Ġbec": 1375,
      "Ġbetween": 1376,
      "ĠEast": 1377,
      "Ġorigin": 1378,
      "Ġtrade": 1379,
      "ated": 1380,
      "Ġ95": 1381,
      "Ġstart": 1382,
      "Ġstress": 1383,
      "ĠNitrogen": 1384,
      "ĠBC": 1385,
      "chasing": 1386,
      "illed": 1387,
      "uries": 1388,
      "urred": 1389,
      "urchasing": 1390,
      "ĠRoad": 1391,
      "ĠRenaiss": 1392,
      "Ġnex": 1393,
      "abul": 1394,
      "uminum": 1395,
      "ĠGut": 1396,
      "Ġclimate": 1397,
      "ĠUSA": 1398,
      "ĠUnion": 1399,
      "ĠHydrogen": 1400,
      "ĠDec": 1401,
      "ĠDem": 1402,
      "ĠDeat": 1403,
      "ential": 1404,
      "Ġhelp": 1405,
      "ortant": 1406,
      "Ġkilled": 1407,
      "ĠLight": 1408,
      "ĠLith": 1409,
      "ĠLead": 1410,
      "Ġ1440": 1411,
      "Ġconnect": 1412,
      "osion": 1413,
      "Ġsugar": 1414,
      "gnitive": 1415,
      "ĠChlor": 1416,
      "ĠIndustr": 1417,
      "ĠIndepen": 1418,
      "ock": 1419,
      "ocracy": 1420,
      "ĠFrench": 1421,
      "Ġcenturies": 1422,
      "Ġ1789": 1423,
      "Ġimportant": 1424,
      "ĠOxygen": 1425,
      "ductivity": 1426,
      "ĠSound": 1427,
      "ĠSodium": 1428,
      "ĠSoviet": 1429,
      "ĠSilk": 1430,
      "ĠSilver": 1431,
      "ĠSilicon": 1432,
      "Ġwalking": 1433,
      "Ġ476": 1434,
      "ĠPhosp": 1435,
      "lobal": 1436,
      "loyment": 1437,
      "ĠZinc": 1438,
      "Ġrisk": 1439,
      "Ġrises": 1440,
      "ĠAmeric": 1441,
      "Ġ2560": 1442,
      "ĠBritain": 1443,
      "ĠUranium": 1444,
      "Ġ1945": 1445,
      "Ġ1969": 1446,
      "Ġprofit": 1447,
      "ĠMagna": 1448,
      "ĠMagnesium": 1449,
      "Ġlearns": 1450,
      "Ġlearning": 1451,
      "Ġmusic": 1452,
      "Ġmeditation": 1453,
      "Ġstronger": 1454,
      "ĠHelium": 1455,
      "Ġ1776": 1456,
      "Ġincrease": 1457,
      "ĠAluminum": 1458,
      "Ġinvented": 1459,
      "ĠEmpire": 1460,
      "horus": 1461,
      "laration": 1462,
      "perature": 1463,
      "Ġerosion": 1464,
      "Ġended": 1465,
      "Ġessential": 1466,
      "Ġlanding": 1467,
      "Ġenhances": 1468,
      "Ġtemperature": 1469,
      "enberg": 1470,
      "Ġopportuniti": 1471,
      "Ġoutcomes": 1472,
      "Ġoccurred": 1473,
      "ĠWorld": 1474,
      "Ġfocus": 1475,
      "ĠSulfur": 1476,
      "Ġaffects": 1477,
      "Ġvocabul": 1478,
      "Ġvitamin": 1479,
      "Ġreading": 1480,
      "Ġreduces": 1481,
      "Ġpower": 1482,
      "Ġprinting": 1483,
      "Ġpyramids": 1484,
      "Ġmelts": 1485,
      "Ġmillions": 1486,
      "Ġweather": 1487,
      "Ġbecomes": 1488,
      "Ġoriginated": 1489,
      "Ġstarted": 1490,
      "ĠRenaissance": 1491,
      "Ġnext": 1492,
      "ĠGutenberg": 1493,
      "ĠDeclaration": 1494,
      "ĠDemocracy": 1495,
      "ĠDeath": 1496,
      "Ġhelps": 1497,
      "ĠLithium": 1498,
      "Ġconnected": 1499,
      "ĠChlorine": 1500,
      "ĠIndustrial": 1501,
      "ĠIndependence": 1502,
      "ĠPhosphorus": 1503,
      "ĠAmerican": 1504,
      "Ġprofitable": 1505,
      "Ġopportunities": 1506,
      "Ġvocabulary": 1507,
      "%.": 1508,
      "08": 1509,
      "13": 1510,
      "14": 1511,
      "18": 1512,
      "24": 1513,
      "26": 1514,
      "27": 1515,
      "30": 1516,
      "48": 1517,
      "400": 1518,
      "51": 1519,
      "56": 1520,
      "58": 1521,
      "62": 1522,
      "63": 1523,
      "64": 1524,
      "68": 1525,
      "77": 1526,
      "792": 1527,
      "84": 1528,
      "849": 1529,
      "99": 1530,
      "Cats": 1531,
      "It": 1532,
      "NA": 1533,
      "Oly": 1534,
      "Water": 1535,
      "ag": 1536,
      "ah": 1537,
      "az": 1538,
      "aci": 1539,
      "agen": 1540,
      "axy": 1541,
      "bu": 1542,
      "ble": 1543,
      "ca": 1544,
      "cy": 1545,
      "cin": 1546,
      "cti": 1547,
      "cid": 1548,
      "cap": 1549,
      "cow": 1550,
      "care": 1551,
      "cano": 1552,
      "dia": 1553,
      "dam": 1554,
      "ei": 1555,
      "eu": 1556,
      "ezes": 1557,
      "eforest": 1558,
      "effective": 1559,
      "fl": 1560,
      "fric": 1561,
      "gk": 1562,
      "gest": 1563,
      "gue": 1564,
      "got": 1565,
      "gul": 1566,
      "gthens": 1567,
      "hi": 1568,
      "ho": 1569,
      "hol": 1570,
      "hase": 1571,
      "hagen": 1572,
      "ik": 1573,
      "ian": 1574,
      "ien": 1575,
      "ition": 1576,
      "ibon": 1577,
      "iver": 1578,
      "iod": 1579,
      "jing": 1580,
      "ki": 1581,
      "ky": 1582,
      "kill": 1583,
      "kja": 1584,
      "kara": 1585,
      "lu": 1586,
      "lat": 1587,
      "lam": 1588,
      "mo": 1589,
      "mon": 1590,
      "mall": 1591,
      "miss": 1592,
      "mosp": 1593,
      "na": 1594,
      "ny": 1595,
      "ning": 1596,
      "nthe": 1597,
      "oth": 1598,
      "our": 1599,
      "ots": 1600,
      "oxy": 1601,
      "overt": 1602,
      "ogot": 1603,
      "pon": 1604,
      "pur": 1605,
      "phere": 1606,
      "qu": 1607,
      "rid": 1608,
      "rons": 1609,
      "ribon": 1610,
      "sis": 1611,
      "sin": 1612,
      "sity": 1613,
      "ster": 1614,
      "slo": 1615,
      "ssed": 1616,
      "tt": 1617,
      "ton": 1618,
      "tar": 1619,
      "test": 1620,
      "tates": 1621,
      "uum": 1622,
      "ucle": 1623,
      "vation": 1624,
      "venue": 1625,
      "vik": 1626,
      "war": 1627,
      "xce": 1628,
      "yo": 1629,
      "yiv": 1630,
      "ykja": 1631,
      "ynthe": 1632,
      "zed": 1633,
      "zones": 1634,
      "Ġes": 1635,
      "Ġhem": 1636,
      "Ġround": 1637,
      "Ġits": 1638,
      "Ġzones": 1639,
      "isbon": 1640,
      "isphere": 1641,
      "Ġisland": 1642,
      "Ġcar": 1643,
      "Ġcons": 1644,
      "Ġcompare": 1645,
      "Ġcold": 1646,
      "Ġcarbon": 1647,
      "ongest": 1648,
      "rest": 1649,
      "reenhouse": 1650,
      "reezes": 1651,
      "ressed": 1652,
      "Ġtarn": 1653,
      "Ġtilt": 1654,
      "Ġtall": 1655,
      "Ġtable": 1656,
      "inan": 1657,
      "erical": 1658,
      "anti": 1659,
      "anil": 1660,
      "ands": 1661,
      "angk": 1662,
      "esert": 1663,
      "ally": 1664,
      "alaxy": 1665,
      "ator": 1666,
      "ĠTok": 1667,
      "ĠTrench": 1668,
      "enland": 1669,
      "enos": 1670,
      "ency": 1671,
      "ensity": 1672,
      "ĠAsia": 1673,
      "ĠAire": 1674,
      "ĠAthens": 1675,
      "ĠAbu": 1676,
      "ĠAfric": 1677,
      "ases": 1678,
      "asil": 1679,
      "assi": 1680,
      "assed": 1681,
      "ington": 1682,
      "ĠWell": 1683,
      "ĠWay": 1684,
      "ĠWars": 1685,
      "Ġfar": 1686,
      "Ġfunc": 1687,
      "Ġfai": 1688,
      "Ġflat": 1689,
      "Ġfreezes": 1690,
      "Ġfinan": 1691,
      "ides": 1692,
      "ĠAnkara": 1693,
      "ĠAntar": 1694,
      "ĠSah": 1695,
      "ĠSanti": 1696,
      "Ġair": 1697,
      "Ġacc": 1698,
      "Ġacid": 1699,
      "Ġsol": 1700,
      "Ġsco": 1701,
      "Ġside": 1702,
      "Ġskill": 1703,
      "Ġsmall": 1704,
      "apest": 1705,
      "rove": 1706,
      "ols": 1707,
      "oles": 1708,
      "olcano": 1709,
      "Ġvolcano": 1710,
      "ains": 1711,
      "aris": 1712,
      "arian": 1713,
      "ctor": 1714,
      "Ġred": 1715,
      "Ġredu": 1716,
      "Ġregul": 1717,
      "Ġremo": 1718,
      "Ġpric": 1719,
      "Ġpurchasing": 1720,
      "Ġphase": 1721,
      "Ġpassed": 1722,
      "ĠCity": 1723,
      "ĠCats": 1724,
      "ĠCai": 1725,
      "Ġdestab": 1726,
      "Ġday": 1727,
      "Ġdire": 1728,
      "Ġdiv": 1729,
      "Ġdesert": 1730,
      "Ġdensity": 1731,
      "Revenue": 1732,
      "Ġcharg": 1733,
      "Ġmade": 1734,
      "ima": 1735,
      "imits": 1736,
      "Ġeffic": 1737,
      "Ġeffici": 1738,
      "Ġemp": 1739,
      "Ġeducation": 1740,
      "Ġeffective": 1741,
      "Ġemiss": 1742,
      "Ġequ": 1743,
      "Ġexce": 1744,
      "sels": 1745,
      "robi": 1746,
      "Ġhum": 1747,
      "Ġholes": 1748,
      "Ġineffective": 1749,
      "llent": 1750,
      "Ġwhat": 1751,
      "untr": 1752,
      "Ġless": 1753,
      "Ġlow": 1754,
      "Ġlack": 1755,
      "Ġlongest": 1756,
      "Ġlimits": 1757,
      "ust": 1758,
      "ussels": 1759,
      "Ġbill": 1760,
      "Ġback": 1761,
      "Ġbones": 1762,
      "Ġbrain": 1763,
      "Ġbod": 1764,
      "Ġboth": 1765,
      "Ġ35": 1766,
      "Ġ23": 1767,
      "Ġ200": 1768,
      "novation": 1769,
      "ĠMil": 1770,
      "ĠMad": 1771,
      "ĠMons": 1772,
      "ĠMos": 1773,
      "ĠManil": 1774,
      "ĠMarian": 1775,
      "Ġ63": 1776,
      "Ġ64": 1777,
      "Ġ649": 1778,
      "ĠEve": 1779,
      "ĠExercise": 1780,
      "ĠElect": 1781,
      "ĠEducation": 1782,
      "Ġtrap": 1783,
      "Ġtrain": 1784,
      "Ġtrad": 1785,
      "Ġ76": 1786,
      "Ġ79": 1787,
      "Ġ84": 1788,
      "Ġ88": 1789,
      "Ġ840": 1790,
      "Ġ858": 1791,
      "Ġ99": 1792,
      "Ġstar": 1793,
      "Ġstars": 1794,
      "Ġstorm": 1795,
      "Ġstren": 1796,
      "Ġstands": 1797,
      "ĠNai": 1798,
      "ĠNile": 1799,
      "ĠNeu": 1800,
      "thing": 1801,
      "Ġ41": 1802,
      "Ġ43": 1803,
      "Ġ44": 1804,
      "Ġ45": 1805,
      "Ġ49": 1806,
      "ĠBud": 1807,
      "ĠBei": 1808,
      "ĠBogot": 1809,
      "ĠBangk": 1810,
      "chare": 1811,
      "vel": 1812,
      "iamon": 1813,
      "essary": 1814,
      "sses": 1815,
      "ĠRome": 1816,
      "ĠIslam": 1817,
      "fication": 1818,
      "ĠPra": 1819,
      "ĠPaci": 1820,
      "ĠPovert": 1821,
      "ĠParis": 1822,
      "Ġatmosp": 1823,
      "Ġnum": 1824,
      "Ġnec": 1825,
      "Ġnew": 1826,
      "Ġnitrogen": 1827,
      "Ġmount": 1828,
      "abad": 1829,
      "thest": 1830,
      "cial": 1831,
      "umpur": 1832,
      "Ġplanets": 1833,
      "Ġ153": 1834,
      "Ġ154": 1835,
      "Ġ156": 1836,
      "Ġ159": 1837,
      "Ġ1551": 1838,
      "Ġ1584": 1839,
      "ĠGravity": 1840,
      "Ġclos": 1841,
      "Ġclassi": 1842,
      "ĠHe": 1843,
      "ĠHeat": 1844,
      "ĠHano": 1845,
      "000": 1846,
      "ĠDel": 1847,
      "ĠDub": 1848,
      "ĠDead": 1849,
      "ĠDNA": 1850,
      "ĠDeforest": 1851,
      "ĠDiamon": 1852,
      "Ġtools": 1853,
      "ĠInfl": 1854,
      "ĠInnovation": 1855,
      "accin": 1856,
      "oul": 1857,
      "ĠStock": 1858,
      "orted": 1859,
      "Ġreported": 1860,
      "Ġelements": 1861,
      "Ġatoms": 1862,
      "penhagen": 1863,
      "ĠLack": 1864,
      "ĠLond": 1865,
      "ĠLisbon": 1866,
      "ĠLima": 1867,
      "ĠLumpur": 1868,
      "Ġrings": 1869,
      "Ġriver": 1870,
      "Ġrust": 1871,
      "Ġcondu": 1872,
      "Ġconvert": 1873,
      "reased": 1874,
      "Ġlevel": 1875,
      "Ġlarger": 1876,
      "Ġbeats": 1877,
      "Ġknowled": 1878,
      "trons": 1879,
      "osynthe": 1880,
      "ĠRed": 1881,
      "ĠReykja": 1882,
      "Ġ110": 1883,
      "Ġ115": 1884,
      "Ġ116": 1885,
      "Ġ118": 1886,
      "Ġdeep": 1887,
      "Ġdeoxy": 1888,
      "Ġ120": 1889,
      "Ġ126": 1890,
      "Ġ127": 1891,
      "Ġ1248": 1892,
      "Ġ182": 1893,
      "Ġ187": 1894,
      "ĠVien": 1895,
      "ĠVaccin": 1896,
      "Ġglobal": 1897,
      "Ġglu": 1898,
      "Ġgreenhouse": 1899,
      "Ġgalaxy": 1900,
      "Ġgases": 1901,
      "Ġperiod": 1902,
      "Ġconfirmed": 1903,
      "otosynthe": 1904,
      "ĠJak": 1905,
      "ĠKual": 1906,
      "ĠKyiv": 1907,
      "Ġ132": 1908,
      "Ġ133": 1909,
      "Ġ137": 1910,
      "Ġ1764": 1911,
      "Ġ5360": 1912,
      "Ġ212": 1913,
      "Ġ8099": 1914,
      "Ġcontains": 1915,
      "ĠGreenhouse": 1916,
      "ĠGreenland": 1917,
      "Ġimprove": 1918,
      "ĠOcean": 1919,
      "ĠOslo": 1920,
      "ĠOtt": 1921,
      "Ġ103": 1922,
      "Ġ104": 1923,
      "Ġ522": 1924,
      "Ġ5292": 1925,
      "Ġ3024": 1926,
      "Ġ2613": 1927,
      "Ġ2627": 1928,
      "Ġ7400": 1929,
      "Ġ7462": 1930,
      "Ġ960": 1931,
      "Ġcontinents": 1932,
      "Ġ162": 1933,
      "Ġdecreased": 1934,
      "Ġ477": 1935,
      "ĠPhotosynthe": 1936,
      "mpus": 1937,
      "sized": 1938,
      "Ġsea": 1939,
      "ĠCopenhagen": 1940,
      "Ġbuy": 1941,
      "Ġ3363": 1942,
      "Ġ3640": 1943,
      "Ġ6240": 1944,
      "Ġ870": 1945,
      "Ġ912": 1946,
      "Ġ4026": 1947,
      "Ġrising": 1948,
      "ĠRevenue": 1949,
      "ĠAmaz": 1950,
      "ĠAmster": 1951,
      "Ġsunny": 1952,
      "Ġvacuum": 1953,
      "Ġ2808": 1954,
      "ĠMount": 1955,
      "ĠBrasil": 1956,
      "ĠBrussels": 1957,
      "Ġhealthcare": 1958,
      "Ġnoble": 1959,
      "Ġnothing": 1960,
      "Ġcompressed": 1961,
      "Ġtimes": 1962,
      "ĠSpot": 1963,
      "ĠSouthern": 1964,
      "Ġproductivity": 1965,
      "ĠCanber": 1966,
      "Ġdry": 1967,
      "Ġhotter": 1968,
      "Ġhottest": 1969,
      "Ġ343": 1970,
      "Ġ2225": 1971,
      "Ġ2268": 1972,
      "Ġ299": 1973,
      "Ġtravel": 1974,
      "ĠNorthern": 1975,
      "ilizes": 1976,
      "458": 1977,
      "Ġmuscle": 1978,
      "Ġmedium": 1979,
      "Ġstrong": 1980,
      "ĠHelsin": 1981,
      "Ġraining": 1982,
      "Ġrainforest": 1983,
      "Ġincreased": 1984,
      "awa": 1985,
      "cose": 1986,
      "Ġroots": 1987,
      "Ġrotates": 1988,
      "Ġcognitive": 1989,
      "Ġcountr": 1990,
      "idered": 1991,
      "ĠSea": 1992,
      "ĠSeoul": 1993,
      "Ġresour": 1994,
      "Ġrespon": 1995,
      "Ġmetal": 1996,
      "Ġmetho": 1997,
      "Ġ206": 1998,
      "ĠBuenos": 1999,
      "ĠBuchare": 2000,
      "ĠBern": 2001,
      "ĠBerlin": 2002,
      "Ġelectricity": 2003,
      "Ġmoney": 2004,
      "Ġlosses": 2005,
      "ĠLightning": 2006,
      "Olympus": 2007,
      "ago": 2008,
      "ctica": 2009,
      "cape": 2010,
      "diac": 2011,
      "holm": 2012,
      "itionally": 2013,
      "ribonucle": 2014,
      "wards": 2015,
      "Ġescape": 2016,
      "Ġhemisphere": 2017,
      "Ġcardiac": 2018,
      "Ġconsidered": 2019,
      "Ġcompared": 2020,
      "Ġcoldest": 2021,
      "Ġtarnish": 2022,
      "Ġtilted": 2023,
      "Ġtallest": 2024,
      "ĠTokyo": 2025,
      "ĠAires": 2026,
      "ĠAbuja": 2027,
      "ĠAfrica": 2028,
      "ĠWellington": 2029,
      "ĠWarsaw": 2030,
      "Ġfarthest": 2031,
      "Ġfunction": 2032,
      "Ġfailed": 2033,
      "Ġfinancial": 2034,
      "ĠAntarctica": 2035,
      "ĠSahara": 2036,
      "ĠSantiago": 2037,
      "Ġaccess": 2038,
      "Ġsolar": 2039,
      "Ġscope": 2040,
      "Ġskills": 2041,
      "Ġsmaller": 2042,
      "Ġreduce": 2043,
      "Ġregular": 2044,
      "Ġremoving": 2045,
      "Ġprices": 2046,
      "ĠCairo": 2047,
      "Ġdestabilizes": 2048,
      "Ġdirection": 2049,
      "Ġdivides": 2050,
      "Ġcharge": 2051,
      "Ġefficacy": 2052,
      "Ġefficiency": 2053,
      "Ġemployment": 2054,
      "Ġemissions": 2055,
      "Ġequator": 2056,
      "Ġexcellent": 2057,
      "Ġhuman": 2058,
      "Ġlowest": 2059,
      "Ġbillion": 2060,
      "Ġbackwards": 2061,
      "Ġbody": 2062,
      "ĠMilky": 2063,
      "ĠMadrid": 2064,
      "ĠMoscow": 2065,
      "ĠManila": 2066,
      "ĠMariana": 2067,
      "ĠEverest": 2068,
      "ĠElectrons": 2069,
      "Ġtraditionally": 2070,
      "Ġstrengthens": 2071,
      "ĠNairobi": 2072,
      "ĠNeutrons": 2073,
      "ĠBudapest": 2074,
      "ĠBeijing": 2075,
      "ĠBogota": 2076,
      "ĠBangkok": 2077,
      "ĠIslamabad": 2078,
      "ĠPrague": 2079,
      "ĠPacific": 2080,
      "ĠPoverty": 2081,
      "Ġatmosphere": 2082,
      "Ġnumerical": 2083,
      "Ġnecessary": 2084,
      "Ġmountain": 2085,
      "Ġclosest": 2086,
      "Ġclassification": 2087,
      "ĠHeating": 2088,
      "ĠHanoi": 2089,
      "ĠDelhi": 2090,
      "ĠDublin": 2091,
      "ĠDeforestation": 2092,
      "ĠDiamonds": 2093,
      "ĠInflation": 2094,
      "ĠStockholm": 2095,
      "ĠLondon": 2096,
      "Ġconductor": 2097,
      "Ġconverts": 2098,
      "Ġknowledge": 2099,
      "ĠReykjavik": 2100,
      "Ġdeepest": 2101,
      "Ġdeoxyribonucle": 2102,
      "ĠVienna": 2103,
      "ĠVaccination": 2104,
      "Ġglucose": 2105,
      "Ġperiodic": 2106,
      "ĠJakarta": 2107,
      "ĠKuala": 2108,
      "ĠOttawa": 2109,
      "ĠPhotosynthesis": 2110,
      "ĠAmazon": 2111,
      "ĠAmsterdam": 2112,
      "ĠBrasilia": 2113,
      "ĠCanberra": 2114,
      "ĠHelsinki": 2115,
      "Ġcountry": 2116,
      "Ġresources": 2117,
      "Ġresponse": 2118,
      "Ġmethods": 2119,
      "ĠBucharest": 2120,
      "Ġhemispheres": 2121,
      "Ġdeoxyribonucleic": 2122,
      "%'": 2123,
      "%'.": 2124,
      "Ag": 2125,
      "Al": 2126,
      "Au": 2127,
      "All": 2128,
      "Cl": 2129,
      "Cu": 2130,
      "Fe": 2131,
      "He": 2132,
      "Hg": 2133,
      "Li": 2134,
      "Light": 2135,
      "Mg": 2136,
      "Na": 2137,
      "Pb": 2138,
      "Si": 2139,
      "So": 2140,
      "Some": 2141,
      "Zn": 2142,
      "cce": 2143,
      "ee": 2144,
      "gy": 2145,
      "ject": 2146,
      "ke": 2147,
      "mmune": 2148,
      "nd": 2149,
      "nolo": 2150,
      "rd": 2151,
      "year": 2152,
      "Ġit": 2153,
      "Ġyear": 2154,
      "Ġtom": 2155,
      "Ġtech": 2156,
      "ĠAg": 2157,
      "ĠAu": 2158,
      "ĠWho": 2159,
      "ĠSi": 2160,
      "ĠSoil": 2161,
      "lection": 2162,
      "row": 2163,
      "roductivity": 2164,
      "orrow": 2165,
      "ĠImmune": 2166,
      "ĠCl": 2167,
      "ĠCu": 2168,
      "Ġmark": 2169,
      "Ġelection": 2170,
      "Ġwin": 2171,
      "Ġwee": 2172,
      "ĠMg": 2173,
      "estment": 2174,
      "Ġstock": 2175,
      "ĠNa": 2176,
      "Ġlike": 2177,
      "ĠPb": 2178,
      "ĠPurchasing": 2179,
      "ĠProductivity": 2180,
      "ĠGlobal": 2181,
      "ĠHg": 2182,
      "ĠHear": 2183,
      "ĠLi": 2184,
      "Ġsucce": 2185,
      "ĠFe": 2186,
      "Ġdecade": 2187,
      "ĠZn": 2188,
      "ĠCognitive": 2189,
      "Ġproject": 2190,
      "Ġinvestment": 2191,
      "ĠEmployment": 2192,
      "Ġmonth": 2193,
      "Ġlook": 2194,
      "ĠHealth": 2195,
      "Sound": 2196,
      "nology": 2197,
      "Ġyears": 2198,
      "Ġtomorrow": 2199,
      "Ġtechnology": 2200,
      "Ġmarket": 2201,
      "Ġweek": 2202,
      "ĠHeart": 2203,
      "Ġsucceed": 2204
    },
    "merges": [
      [
        "i",
        "s"
      ],
      [
        "h",
        "e"
      ],
      [
        "Ġ",
        "is"
      ],
      [
        "Ġ",
        "c"
      ],
      [
        "o",
        "n"
      ],
      [
        "r",
        "e"
      ],
      [
        "Ġ",
        "t"
      ],
      [
        "i",
        "n"
      ],
      [
        "e",
        "r"
      ],
      [
        "a",
        "n"
      ],
      [
        "e",
        "s"
      ],
      [
        "a",
        "l"
      ],
      [
        "a",
        "t"
      ],
      [
        "Ġ",
        "T"
      ],
      [
        "e",
        "n"
      ],
      [
        "t",
        "i"
      ],
      [
        "ĠT",
        "he"
      ],
      [
        "Ġ",
        "A"
      ],
      [
        "s",
        "w"
      ],
      [
        "a",
        "s"
      ],
      [
        "sw",
        "er"
      ],
      [
        "i",
        "t"
      ],
      [
        "ti",
        "on"
      ],
      [
        "in",
        "g"
      ],
      [
        "Ġ",
        "o"
      ],
      [
        "Ġ",
        "W"
      ],
      [
        "Ġt",
        "he"
      ],
      [
        "Ġ",
        "f"
      ],
      [
        "i",
        "d"
      ],
      [
        "ĠW",
        "h"
      ],
      [
        "Ġt",
        "h"
      ],
      [
        "ĠA",
        "n"
      ],
      [
        "Ġ",
        "S"
      ],
      [
        "ĠAn",
        "swer"
      ],
      [
        "Ġ",
        "a"
      ],
      [
        "Q",
        "u"
      ],
      [
        "Ġ",
        "s"
      ],
      [
        "es",
        "tion"
      ],
      [
        "Qu",
        "estion"
      ],
      [
        "a",
        "p"
      ],
      [
        "Ġo",
        "f"
      ],
      [
        "i",
        "c"
      ],
      [
        "ĠWh",
        "at"
      ],
      [
        "l",
        "e"
      ],
      [
        "on",
        "ing"
      ],
      [
        "as",
        "oning"
      ],
      [
        "Ġc",
        "ap"
      ],
      [
        "it",
        "al"
      ],
      [
        "Ġcap",
        "ital"
      ],
      [
        "r",
        "o"
      ],
      [
        "Ġ",
        "an"
      ],
      [
        "o",
        "l"
      ],
      [
        "Ġ",
        "1"
      ],
      [
        "en",
        "t"
      ],
      [
        "Ġ",
        "v"
      ],
      [
        "c",
        "e"
      ],
      [
        "a",
        "in"
      ],
      [
        "a",
        "r"
      ],
      [
        "c",
        "t"
      ],
      [
        "o",
        "r"
      ],
      [
        "Ġ",
        "re"
      ],
      [
        "le",
        "m"
      ],
      [
        "Ġ",
        "p"
      ],
      [
        "Ġ",
        "I"
      ],
      [
        "Ġ",
        "C"
      ],
      [
        "Ġ",
        "d"
      ],
      [
        "en",
        "ce"
      ],
      [
        "R",
        "e"
      ],
      [
        "Ġc",
        "h"
      ],
      [
        "id",
        "ence"
      ],
      [
        "Ġan",
        "swer"
      ],
      [
        "Ġth",
        "is"
      ],
      [
        "o",
        "re"
      ],
      [
        "ĠT",
        "h"
      ],
      [
        "Ġ",
        "m"
      ],
      [
        "Ġch",
        "ain"
      ],
      [
        "it",
        "y"
      ],
      [
        "ĠTh",
        "is"
      ],
      [
        "u",
        "tion"
      ],
      [
        "ol",
        "ution"
      ],
      [
        "f",
        "ore"
      ],
      [
        "i",
        "m"
      ],
      [
        "ĠThe",
        "re"
      ],
      [
        "Ġ",
        "e"
      ],
      [
        "s",
        "e"
      ],
      [
        "ro",
        "b"
      ],
      [
        "P",
        "rob"
      ],
      [
        "Ġ",
        "="
      ],
      [
        "al",
        "id"
      ],
      [
        "ĠS",
        "olution"
      ],
      [
        "Ġv",
        "alid"
      ],
      [
        "Ġre",
        "asoning"
      ],
      [
        "Re",
        "asoning"
      ],
      [
        "ĠThere",
        "fore"
      ],
      [
        "Prob",
        "lem"
      ],
      [
        "Ġc",
        "ity"
      ],
      [
        "e",
        "t"
      ],
      [
        "Ġ",
        "h"
      ],
      [
        "Ġ",
        "in"
      ],
      [
        "l",
        "l"
      ],
      [
        "l",
        "an"
      ],
      [
        "Ġ",
        "5"
      ],
      [
        "a",
        "ct"
      ],
      [
        "Ġ",
        "-"
      ],
      [
        "Ġ",
        "w"
      ],
      [
        "u",
        "n"
      ],
      [
        "Ġ",
        "l"
      ],
      [
        "m",
        "ent"
      ],
      [
        "u",
        "s"
      ],
      [
        "v",
        "idence"
      ],
      [
        "Ġc",
        "an"
      ],
      [
        "Ġ",
        "b"
      ],
      [
        "Ġ",
        "3"
      ],
      [
        "Ġ",
        "2"
      ],
      [
        "m",
        "b"
      ],
      [
        "re",
        "at"
      ],
      [
        "is",
        "m"
      ],
      [
        "er",
        "t"
      ],
      [
        "an",
        "ism"
      ],
      [
        "n",
        "o"
      ],
      [
        "o",
        "m"
      ],
      [
        "Ġ",
        "M"
      ],
      [
        "Ġ",
        "*"
      ],
      [
        "Ġ",
        "+"
      ],
      [
        "Ġth",
        "an"
      ],
      [
        "Ġ",
        "6"
      ],
      [
        "Ġ",
        "E"
      ],
      [
        "Ġo",
        "r"
      ],
      [
        "Ġa",
        "re"
      ],
      [
        "t",
        "er"
      ],
      [
        "u",
        "re"
      ],
      [
        "Ġt",
        "r"
      ],
      [
        "es",
        "t"
      ],
      [
        "g",
        "anism"
      ],
      [
        "Ġ",
        "7"
      ],
      [
        "Ġ",
        "8"
      ],
      [
        "at",
        "e"
      ],
      [
        "Ġor",
        "ganism"
      ],
      [
        "as",
        "ter"
      ],
      [
        "Ġf",
        "aster"
      ],
      [
        "Ġc",
        "reat"
      ],
      [
        "on",
        "f"
      ],
      [
        "Ġf",
        "or"
      ],
      [
        "Ġcreat",
        "ure"
      ],
      [
        "Ġ",
        "9"
      ],
      [
        "Ġs",
        "t"
      ],
      [
        "Ġ",
        "N"
      ],
      [
        "Ġp",
        "lan"
      ],
      [
        "F",
        "act"
      ],
      [
        "t",
        "h"
      ],
      [
        "ĠWh",
        "ic"
      ],
      [
        "ĠWhic",
        "h"
      ],
      [
        "u",
        "e"
      ],
      [
        "al",
        "s"
      ],
      [
        "e",
        "d"
      ],
      [
        "Ġorganism",
        "s"
      ],
      [
        "Ġl",
        "i"
      ],
      [
        "Ġ",
        "4"
      ],
      [
        "Ġ",
        "B"
      ],
      [
        "at",
        "es"
      ],
      [
        "Ġtr",
        "ue"
      ],
      [
        "c",
        "h"
      ],
      [
        "i",
        "l"
      ],
      [
        "v",
        "e"
      ],
      [
        "Ġs",
        "y"
      ],
      [
        "b",
        "r"
      ],
      [
        "e",
        "br"
      ],
      [
        "i",
        "a"
      ],
      [
        "u",
        "r"
      ],
      [
        "al",
        "se"
      ],
      [
        "Ġf",
        "alse"
      ],
      [
        "Ġv",
        "ert"
      ],
      [
        "ĠC",
        "onf"
      ],
      [
        "ebr",
        "ates"
      ],
      [
        "Ġvert",
        "ebrates"
      ],
      [
        "es",
        "s"
      ],
      [
        "no",
        "t"
      ],
      [
        "s",
        "s"
      ],
      [
        "he",
        "m"
      ],
      [
        "at",
        "s"
      ],
      [
        "ic",
        "al"
      ],
      [
        "lem",
        "ent"
      ],
      [
        "Ġe",
        "vidence"
      ],
      [
        "Ġ",
        "R"
      ],
      [
        "v",
        "ing"
      ],
      [
        "Ġc",
        "hem"
      ],
      [
        "ing",
        "s"
      ],
      [
        "ĠI",
        "s"
      ],
      [
        "mb",
        "ol"
      ],
      [
        "Ġsy",
        "mbol"
      ],
      [
        "Ġchem",
        "ical"
      ],
      [
        "f",
        "ic"
      ],
      [
        "Ġ",
        "P"
      ],
      [
        "Ġ",
        "at"
      ],
      [
        "ĠA",
        "ll"
      ],
      [
        "Y",
        "es"
      ],
      [
        "a",
        "m"
      ],
      [
        "d",
        "s"
      ],
      [
        "g",
        "h"
      ],
      [
        "Ġ",
        "n"
      ],
      [
        "Ġ",
        "Yes"
      ],
      [
        "Ġth",
        "ings"
      ],
      [
        "ate",
        "ment"
      ],
      [
        "Ġli",
        "ving"
      ],
      [
        "Ġh",
        "as"
      ],
      [
        "Ġc",
        "ats"
      ],
      [
        "Ġm",
        "o"
      ],
      [
        "a",
        "b"
      ],
      [
        "E",
        "vidence"
      ],
      [
        "t",
        "he"
      ],
      [
        "ĠA",
        "ss"
      ],
      [
        "Ġan",
        "im"
      ],
      [
        "ĠConf",
        "idence"
      ],
      [
        "ess",
        "ment"
      ],
      [
        "ĠAss",
        "essment"
      ],
      [
        "c",
        "i"
      ],
      [
        "u",
        "m"
      ],
      [
        "Ġd",
        "o"
      ],
      [
        "i",
        "r"
      ],
      [
        "is",
        "h"
      ],
      [
        "Ġthe",
        "n"
      ],
      [
        "ĠI",
        "f"
      ],
      [
        "Ġcreature",
        "s"
      ],
      [
        "Ġplan",
        "et"
      ],
      [
        "i",
        "on"
      ],
      [
        "a",
        "us"
      ],
      [
        "Ġf",
        "ish"
      ],
      [
        "Ġ1",
        "5"
      ],
      [
        "Ġ",
        "G"
      ],
      [
        "Ġc",
        "l"
      ],
      [
        "Ġcan",
        "not"
      ],
      [
        "e",
        "ll"
      ],
      [
        "u",
        "d"
      ],
      [
        "Ġ",
        "U"
      ],
      [
        "Ġc",
        "or"
      ],
      [
        "re",
        "ct"
      ],
      [
        "Ġcor",
        "rect"
      ],
      [
        "u",
        "mb"
      ],
      [
        "Ġ",
        "H"
      ],
      [
        "Ġf",
        "act"
      ],
      [
        "Ġn",
        "umb"
      ],
      [
        "Ġnumb",
        "er"
      ],
      [
        "0",
        "0"
      ],
      [
        "p",
        "p"
      ],
      [
        "Ġ",
        "D"
      ],
      [
        "en",
        "ti"
      ],
      [
        "the",
        "r"
      ],
      [
        "Ġanim",
        "als"
      ],
      [
        "a",
        "d"
      ],
      [
        "e",
        "c"
      ],
      [
        "i",
        "es"
      ],
      [
        "o",
        "w"
      ],
      [
        "t",
        "s"
      ],
      [
        "Ġt",
        "o"
      ],
      [
        "lan",
        "d"
      ],
      [
        "est",
        "ab"
      ],
      [
        "m",
        "als"
      ],
      [
        "Ġ",
        "he"
      ],
      [
        "Ġ",
        "al"
      ],
      [
        "ĠI",
        "n"
      ],
      [
        "Ġm",
        "am"
      ],
      [
        "Ġmam",
        "mals"
      ],
      [
        "a",
        "c"
      ],
      [
        "l",
        "is"
      ],
      [
        "he",
        "d"
      ],
      [
        "Ġs",
        "ci"
      ],
      [
        "ct",
        "s"
      ],
      [
        "Ġw",
        "ell"
      ],
      [
        "enti",
        "fic"
      ],
      [
        "estab",
        "lis"
      ],
      [
        "Ġsci",
        "entific"
      ],
      [
        "establis",
        "hed"
      ],
      [
        "a",
        "y"
      ],
      [
        "a",
        "im"
      ],
      [
        "g",
        "s"
      ],
      [
        "i",
        "gh"
      ],
      [
        "o",
        "u"
      ],
      [
        "on",
        "s"
      ],
      [
        "Ġo",
        "ther"
      ],
      [
        "ĠS",
        "t"
      ],
      [
        "ar",
        "th"
      ],
      [
        "or",
        "t"
      ],
      [
        "Ġre",
        "p"
      ],
      [
        "ĠE",
        "arth"
      ],
      [
        "Ġdo",
        "gs"
      ],
      [
        "Ġcl",
        "aim"
      ],
      [
        "ud",
        "ies"
      ],
      [
        ")",
        "."
      ],
      [
        "Ġ",
        "("
      ],
      [
        "Ġe",
        "lement"
      ],
      [
        "Ġat",
        "om"
      ],
      [
        "O",
        "R"
      ],
      [
        "l",
        "es"
      ],
      [
        "Ġc",
        "aus"
      ],
      [
        "ti",
        "les"
      ],
      [
        "ĠS",
        "un"
      ],
      [
        "Ġan",
        "d"
      ],
      [
        "Ġp",
        "et"
      ],
      [
        "ĠC",
        "O"
      ],
      [
        "se",
        "cts"
      ],
      [
        "Ġin",
        "sects"
      ],
      [
        "Ġplan",
        "ts"
      ],
      [
        "Ġrep",
        "tiles"
      ],
      [
        "Ġcaus",
        "es"
      ],
      [
        "i",
        "um"
      ],
      [
        "p",
        "en"
      ],
      [
        "Ġ",
        "k"
      ],
      [
        "ĠE",
        "lement"
      ],
      [
        "ĠN",
        "o"
      ],
      [
        "Ġatom",
        "ic"
      ],
      [
        "A",
        "D"
      ],
      [
        "C",
        "T"
      ],
      [
        "I",
        "CT"
      ],
      [
        "N",
        "T"
      ],
      [
        "R",
        "AD"
      ],
      [
        "Ġ",
        "'"
      ],
      [
        "Ġ",
        "L"
      ],
      [
        "at",
        "ion"
      ],
      [
        "ĠThe",
        "se"
      ],
      [
        "Ġ1",
        "4"
      ],
      [
        "ar",
        "g"
      ],
      [
        "ert",
        "ain"
      ],
      [
        "Ġst",
        "atement"
      ],
      [
        "ĠCO",
        "NT"
      ],
      [
        "RAD",
        "ICT"
      ],
      [
        "Ġstatement",
        "s"
      ],
      [
        "ĠCONT",
        "RADICT"
      ],
      [
        "Ġ",
        "r"
      ],
      [
        "Ġc",
        "on"
      ],
      [
        "re",
        "as"
      ],
      [
        "an",
        "y"
      ],
      [
        "al",
        "k"
      ],
      [
        "ro",
        "v"
      ],
      [
        "a",
        "ve"
      ],
      [
        "e",
        "l"
      ],
      [
        "Ġ",
        "le"
      ],
      [
        "at",
        "er"
      ],
      [
        "Ġ1",
        "00"
      ],
      [
        "Ġl",
        "arg"
      ],
      [
        "Ġb",
        "e"
      ],
      [
        "Ġb",
        "ir"
      ],
      [
        "no",
        "w"
      ],
      [
        "om",
        "p"
      ],
      [
        "Ġk",
        "now"
      ],
      [
        "Ġbir",
        "ds"
      ],
      [
        "g",
        "en"
      ],
      [
        "t",
        "r"
      ],
      [
        "y",
        "p"
      ],
      [
        "a",
        "re"
      ],
      [
        "l",
        "y"
      ],
      [
        "o",
        "s"
      ],
      [
        "s",
        "t"
      ],
      [
        "w",
        "ay"
      ],
      [
        "Ġ",
        "Re"
      ],
      [
        "Ġf",
        "ro"
      ],
      [
        "Ġth",
        "at"
      ],
      [
        "Ġs",
        "u"
      ],
      [
        "ap",
        "pen"
      ],
      [
        "Ġ1",
        "1"
      ],
      [
        "Ġd",
        "e"
      ],
      [
        "Ġh",
        "appen"
      ],
      [
        "un",
        "d"
      ],
      [
        "om",
        "e"
      ],
      [
        "ĠM",
        "e"
      ],
      [
        "ur",
        "y"
      ],
      [
        "Ġmo",
        "ons"
      ],
      [
        "Ġlarg",
        "est"
      ],
      [
        "Ġknow",
        "n"
      ],
      [
        "Ġfro",
        "m"
      ],
      [
        "g",
        "n"
      ],
      [
        "i",
        "ll"
      ],
      [
        "Ġ",
        "im"
      ],
      [
        "he",
        "n"
      ],
      [
        "ti",
        "ve"
      ],
      [
        "ĠW",
        "hen"
      ],
      [
        "Ġ1",
        "2"
      ],
      [
        "Ġ1",
        "8"
      ],
      [
        "Ġd",
        "id"
      ],
      [
        "Ġw",
        "as"
      ],
      [
        "pp",
        "ort"
      ],
      [
        "d",
        "u"
      ],
      [
        "e",
        "ar"
      ],
      [
        "l",
        "ic"
      ],
      [
        "r",
        "a"
      ],
      [
        "Ġ",
        "V"
      ],
      [
        "Ġ",
        "g"
      ],
      [
        "Ġ",
        "not"
      ],
      [
        "Ġc",
        "onf"
      ],
      [
        "er",
        "c"
      ],
      [
        "Ġp",
        "er"
      ],
      [
        "ĠC",
        "h"
      ],
      [
        "et",
        "er"
      ],
      [
        "Ġ5",
        "9"
      ],
      [
        "un",
        "c"
      ],
      [
        "ir",
        "m"
      ],
      [
        "Ġal",
        "l"
      ],
      [
        "ĠIn",
        "d"
      ],
      [
        "Ġconf",
        "irm"
      ],
      [
        "4",
        "0"
      ],
      [
        "e",
        "p"
      ],
      [
        "is",
        "e"
      ],
      [
        "an",
        "ce"
      ],
      [
        "ĠS",
        "ome"
      ],
      [
        "Ġp",
        "rov"
      ],
      [
        "us",
        "tr"
      ],
      [
        "Ġprov",
        "id"
      ],
      [
        "'",
        "t"
      ],
      [
        "E",
        "D"
      ],
      [
        "E",
        "F"
      ],
      [
        "E",
        "S"
      ],
      [
        "I",
        "X"
      ],
      [
        "P",
        "P"
      ],
      [
        "T",
        "S"
      ],
      [
        "T",
        "ES"
      ],
      [
        "U",
        "PP"
      ],
      [
        "U",
        "TES"
      ],
      [
        "b",
        "ou"
      ],
      [
        "d",
        "er"
      ],
      [
        "f",
        "fic"
      ],
      [
        "h",
        "at"
      ],
      [
        "h",
        "ow"
      ],
      [
        "o",
        "c"
      ],
      [
        "o",
        "t"
      ],
      [
        "u",
        "gh"
      ],
      [
        "Ġ",
        "F"
      ],
      [
        "Ġ",
        "J"
      ],
      [
        "Ġ",
        "K"
      ],
      [
        "Ġ",
        "on"
      ],
      [
        "Ġ",
        "sw"
      ],
      [
        "Ġ",
        "unc"
      ],
      [
        "Ġc",
        "ent"
      ],
      [
        "es",
        "ear"
      ],
      [
        "Ġth",
        "ro"
      ],
      [
        "ĠS",
        "UPP"
      ],
      [
        "Ġa",
        "bou"
      ],
      [
        "Ġs",
        "how"
      ],
      [
        "Ġ1",
        "3"
      ],
      [
        "Ġ1",
        "7"
      ],
      [
        "ar",
        "t"
      ],
      [
        "Ġd",
        "on"
      ],
      [
        "Ġh",
        "igh"
      ],
      [
        "Ġh",
        "ave"
      ],
      [
        "Ġ5",
        "3"
      ],
      [
        "Ġ5",
        "4"
      ],
      [
        "Ġ3",
        "2"
      ],
      [
        "Ġ2",
        "1"
      ],
      [
        "ĠM",
        "IX"
      ],
      [
        "Ġ8",
        "0"
      ],
      [
        "Ġst",
        "udies"
      ],
      [
        "ĠR",
        "EF"
      ],
      [
        "ĠR",
        "esear"
      ],
      [
        "Ġmo",
        "der"
      ],
      [
        "Ġal",
        "way"
      ],
      [
        "igh",
        "t"
      ],
      [
        "Ġother",
        "s"
      ],
      [
        "ĠSt",
        "udies"
      ],
      [
        "OR",
        "TS"
      ],
      [
        "Ġcon",
        "t"
      ],
      [
        "reas",
        "es"
      ],
      [
        "omp",
        "are"
      ],
      [
        "Ġsu",
        "pport"
      ],
      [
        "Ġsw",
        "im"
      ],
      [
        "Ġunc",
        "ertain"
      ],
      [
        "Ġthro",
        "ugh"
      ],
      [
        "ĠSUPP",
        "ORTS"
      ],
      [
        "Ġabou",
        "t"
      ],
      [
        "Ġshow",
        "s"
      ],
      [
        "ĠMIX",
        "ED"
      ],
      [
        "ĠREF",
        "UTES"
      ],
      [
        "ĠResear",
        "ch"
      ],
      [
        "Ġmoder",
        "ate"
      ],
      [
        "Ġalway",
        "s"
      ],
      [
        "e",
        "m"
      ],
      [
        "f",
        "e"
      ],
      [
        "i",
        "tive"
      ],
      [
        "o",
        "il"
      ],
      [
        "u",
        "l"
      ],
      [
        "x",
        "y"
      ],
      [
        "in",
        "a"
      ],
      [
        "it",
        "h"
      ],
      [
        "Ġm",
        "any"
      ],
      [
        "Ġin",
        "c"
      ],
      [
        "ĠG",
        "re"
      ],
      [
        "ac",
        "k"
      ],
      [
        "Ġim",
        "p"
      ],
      [
        "'",
        "."
      ],
      [
        "'",
        "s"
      ],
      [
        "C",
        "aus"
      ],
      [
        "C",
        "ompare"
      ],
      [
        "S",
        "t"
      ],
      [
        "W",
        "hat"
      ],
      [
        "a",
        "i"
      ],
      [
        "a",
        "ch"
      ],
      [
        "a",
        "ds"
      ],
      [
        "s",
        "ia"
      ],
      [
        "Ġ",
        "O"
      ],
      [
        "Ġt",
        "alk"
      ],
      [
        "Ġt",
        "yp"
      ],
      [
        "in",
        "ent"
      ],
      [
        "ĠA",
        "ustr"
      ],
      [
        "ol",
        "d"
      ],
      [
        "Ġ1",
        "0"
      ],
      [
        "Ġv",
        "s"
      ],
      [
        "ar",
        "s"
      ],
      [
        "Ġe",
        "ach"
      ],
      [
        "Ġ5",
        "2"
      ],
      [
        "Ġw",
        "ater"
      ],
      [
        "Ġ3",
        "0"
      ],
      [
        "Ġ2",
        "6"
      ],
      [
        "Ġ6",
        "6"
      ],
      [
        "Ġ7",
        "4"
      ],
      [
        "Ġ8",
        "1"
      ],
      [
        "Ġ9",
        "6"
      ],
      [
        "ch",
        "anism"
      ],
      [
        "ĠConf",
        "lic"
      ],
      [
        "Ġdo",
        "es"
      ],
      [
        "ĠSt",
        "atement"
      ],
      [
        "OR",
        "Y"
      ],
      [
        "ĠCONTRADICT",
        "ORY"
      ],
      [
        "Ġle",
        "ads"
      ],
      [
        "ĠMe",
        "chanism"
      ],
      [
        "du",
        "c"
      ],
      [
        "ffic",
        "i"
      ],
      [
        "Ġcont",
        "inent"
      ],
      [
        "Caus",
        "al"
      ],
      [
        "St",
        "atement"
      ],
      [
        "Ġtyp",
        "e"
      ],
      [
        "ĠConflic",
        "t"
      ],
      [
        "b",
        "on"
      ],
      [
        "v",
        "ity"
      ],
      [
        "in",
        "es"
      ],
      [
        "ĠS",
        "o"
      ],
      [
        "ĠS",
        "il"
      ],
      [
        "Ġ1",
        "6"
      ],
      [
        "ar",
        "y"
      ],
      [
        "ĠI",
        "t"
      ],
      [
        "Ġd",
        "ec"
      ],
      [
        "Ġw",
        "alk"
      ],
      [
        "un",
        "e"
      ],
      [
        "Ġ4",
        "7"
      ],
      [
        "ĠP",
        "h"
      ],
      [
        "Ġcent",
        "ury"
      ],
      [
        "A",
        "I"
      ],
      [
        "C",
        "E"
      ],
      [
        "N",
        "CE"
      ],
      [
        "R",
        "T"
      ],
      [
        "T",
        "he"
      ],
      [
        "e",
        "w"
      ],
      [
        "e",
        "at"
      ],
      [
        "f",
        "in"
      ],
      [
        "l",
        "o"
      ],
      [
        "m",
        "p"
      ],
      [
        "m",
        "in"
      ],
      [
        "r",
        "on"
      ],
      [
        "r",
        "ic"
      ],
      [
        "s",
        "i"
      ],
      [
        "s",
        "u"
      ],
      [
        "t",
        "y"
      ],
      [
        "u",
        "g"
      ],
      [
        "v",
        "er"
      ],
      [
        "Ġ",
        "Z"
      ],
      [
        "Ġc",
        "ertain"
      ],
      [
        "on",
        "d"
      ],
      [
        "on",
        "es"
      ],
      [
        "an",
        "d"
      ],
      [
        "al",
        "th"
      ],
      [
        "as",
        "e"
      ],
      [
        "Ġf",
        "ly"
      ],
      [
        "ĠS",
        "w"
      ],
      [
        "Ġs",
        "e"
      ],
      [
        "ro",
        "gen"
      ],
      [
        "ro",
        "und"
      ],
      [
        "ar",
        "n"
      ],
      [
        "or",
        "m"
      ],
      [
        "ĠC",
        "o"
      ],
      [
        "Ġd",
        "eter"
      ],
      [
        "Ġw",
        "ith"
      ],
      [
        "Ġb",
        "u"
      ],
      [
        "Ġb",
        "reat"
      ],
      [
        "Ġ3",
        "3"
      ],
      [
        "Ġ3",
        "6"
      ],
      [
        "Ġ3",
        "9"
      ],
      [
        "Ġ2",
        "4"
      ],
      [
        "Ġ6",
        "1"
      ],
      [
        "Ġ6",
        "2"
      ],
      [
        "Ġ6",
        "5"
      ],
      [
        "Ġ7",
        "2"
      ],
      [
        "Ġ7",
        "8"
      ],
      [
        "Ġ8",
        "7"
      ],
      [
        "Ġ9",
        "1"
      ],
      [
        "Ġ9",
        "3"
      ],
      [
        "Ġ9",
        "8"
      ],
      [
        "Ġ4",
        "0"
      ],
      [
        "Ġ4",
        "2"
      ],
      [
        "il",
        "t"
      ],
      [
        "Ġmo",
        "ve"
      ],
      [
        "Ġanim",
        "al"
      ],
      [
        "ĠU",
        "NCE"
      ],
      [
        "ĠH",
        "ow"
      ],
      [
        "Ġhe",
        "ar"
      ],
      [
        "ĠIn",
        "su"
      ],
      [
        "Ġr",
        "is"
      ],
      [
        "ĠRe",
        "v"
      ],
      [
        "Ġde",
        "fin"
      ],
      [
        "Ġprovid",
        "e"
      ],
      [
        "ffici",
        "ent"
      ],
      [
        "AI",
        "N"
      ],
      [
        "RT",
        "AIN"
      ],
      [
        "min",
        "ed"
      ],
      [
        "Ġcertain",
        "ty"
      ],
      [
        "Ġdeter",
        "mined"
      ],
      [
        "Ġbreat",
        "he"
      ],
      [
        "ĠUNCE",
        "RTAIN"
      ],
      [
        "ĠInsu",
        "fficient"
      ],
      [
        "Ġdefin",
        "itive"
      ],
      [
        "e",
        "ce"
      ],
      [
        "g",
        "e"
      ],
      [
        "g",
        "er"
      ],
      [
        "g",
        "yp"
      ],
      [
        "i",
        "re"
      ],
      [
        "i",
        "et"
      ],
      [
        "r",
        "an"
      ],
      [
        "t",
        "o"
      ],
      [
        "x",
        "erc"
      ],
      [
        "he",
        "r"
      ],
      [
        "re",
        "n"
      ],
      [
        "in",
        "t"
      ],
      [
        "al",
        "l"
      ],
      [
        "al",
        "y"
      ],
      [
        "en",
        "h"
      ],
      [
        "ĠA",
        "m"
      ],
      [
        "Ġs",
        "le"
      ],
      [
        "Ġs",
        "un"
      ],
      [
        "le",
        "d"
      ],
      [
        "Ġv",
        "ac"
      ],
      [
        "im",
        "ate"
      ],
      [
        "Ġin",
        "to"
      ],
      [
        "Ġ5",
        "0"
      ],
      [
        "Ġ2",
        "5"
      ],
      [
        "Ġ2",
        "8"
      ],
      [
        "om",
        "an"
      ],
      [
        "ĠM",
        "o"
      ],
      [
        "ĠM",
        "erc"
      ],
      [
        "ĠE",
        "gyp"
      ],
      [
        "ĠB",
        "r"
      ],
      [
        "ĠR",
        "oman"
      ],
      [
        "ĠU",
        "ran"
      ],
      [
        "Ġhe",
        "alth"
      ],
      [
        "ĠCh",
        "ina"
      ],
      [
        "xy",
        "gen"
      ],
      [
        "ĠGre",
        "ece"
      ],
      [
        "ĠIt",
        "aly"
      ],
      [
        "xerc",
        "ise"
      ],
      [
        "Ġsle",
        "ep"
      ],
      [
        "ĠMerc",
        "ury"
      ],
      [
        "ĠEgyp",
        "t"
      ],
      [
        "4",
        "9"
      ],
      [
        "a",
        "k"
      ],
      [
        "a",
        "gn"
      ],
      [
        "e",
        "y"
      ],
      [
        "f",
        "orm"
      ],
      [
        "g",
        "an"
      ],
      [
        "i",
        "le"
      ],
      [
        "i",
        "gn"
      ],
      [
        "l",
        "s"
      ],
      [
        "p",
        "e"
      ],
      [
        "p",
        "it"
      ],
      [
        "r",
        "ain"
      ],
      [
        "u",
        "b"
      ],
      [
        "u",
        "t"
      ],
      [
        "u",
        "al"
      ],
      [
        "u",
        "pit"
      ],
      [
        "x",
        "ic"
      ],
      [
        "Ġ",
        "no"
      ],
      [
        "Ġc",
        "omp"
      ],
      [
        "re",
        "ss"
      ],
      [
        "Ġt",
        "im"
      ],
      [
        "al",
        "ia"
      ],
      [
        "at",
        "ur"
      ],
      [
        "en",
        "us"
      ],
      [
        "ing",
        "ap"
      ],
      [
        "ĠW",
        "ar"
      ],
      [
        "ĠW",
        "ater"
      ],
      [
        "ĠS",
        "p"
      ],
      [
        "ĠS",
        "ou"
      ],
      [
        "ĠS",
        "atur"
      ],
      [
        "ĠS",
        "ingap"
      ],
      [
        "Ġa",
        "round"
      ],
      [
        "Ġs",
        "o"
      ],
      [
        "Ġs",
        "ec"
      ],
      [
        "Ġs",
        "ign"
      ],
      [
        "le",
        "ct"
      ],
      [
        "Ġ1",
        "9"
      ],
      [
        "ce",
        "an"
      ],
      [
        "Ġp",
        "ro"
      ],
      [
        "ĠC",
        "an"
      ],
      [
        "Ġd",
        "r"
      ],
      [
        "Ġd",
        "ise"
      ],
      [
        "Ġm",
        "eter"
      ],
      [
        "Ġh",
        "ot"
      ],
      [
        "Ġ5",
        "1"
      ],
      [
        "Ġ5",
        "6"
      ],
      [
        "Ġ5",
        "7"
      ],
      [
        "Ġ5",
        "8"
      ],
      [
        "Ġb",
        "oil"
      ],
      [
        "Ġ3",
        "1"
      ],
      [
        "Ġ3",
        "4"
      ],
      [
        "Ġ2",
        "2"
      ],
      [
        "Ġ2",
        "9"
      ],
      [
        "om",
        "es"
      ],
      [
        "ĠM",
        "ars"
      ],
      [
        "ĠM",
        "agn"
      ],
      [
        "Ġ6",
        "7"
      ],
      [
        "Ġtr",
        "ave"
      ],
      [
        "Ġ7",
        "0"
      ],
      [
        "Ġ7",
        "1"
      ],
      [
        "Ġ8",
        "2"
      ],
      [
        "Ġ9",
        "2"
      ],
      [
        "ĠN",
        "or"
      ],
      [
        "ĠN",
        "ew"
      ],
      [
        "il",
        "i"
      ],
      [
        "ci",
        "ent"
      ],
      [
        "ad",
        "e"
      ],
      [
        "rov",
        "es"
      ],
      [
        "Ġle",
        "arn"
      ],
      [
        "Ġbe",
        "gan"
      ],
      [
        "ĠMe",
        "xic"
      ],
      [
        "ra",
        "vity"
      ],
      [
        "ĠV",
        "enus"
      ],
      [
        "Ġper",
        "form"
      ],
      [
        "ĠJ",
        "upit"
      ],
      [
        "Ġinc",
        "reases"
      ],
      [
        "Ġimp",
        "roves"
      ],
      [
        "ĠAustr",
        "alia"
      ],
      [
        "Ġdec",
        "reases"
      ],
      [
        "Ġse",
        "e"
      ],
      [
        "Ġbu",
        "ilt"
      ],
      [
        "ĠRev",
        "olution"
      ],
      [
        "ĠSatur",
        "n"
      ],
      [
        "ĠSingap",
        "ore"
      ],
      [
        "Ġsec",
        "ond"
      ],
      [
        "Ġsign",
        "ed"
      ],
      [
        "Ġdise",
        "ase"
      ],
      [
        "Ġmeter",
        "s"
      ],
      [
        "Ġboil",
        "s"
      ],
      [
        "ĠMexic",
        "o"
      ],
      [
        "Ġperform",
        "ance"
      ],
      [
        "ĠJupit",
        "er"
      ],
      [
        "1",
        "5"
      ],
      [
        "4",
        "5"
      ],
      [
        "6",
        "0"
      ],
      [
        "6",
        "9"
      ],
      [
        "b",
        "er"
      ],
      [
        "c",
        "c"
      ],
      [
        "c",
        "es"
      ],
      [
        "c",
        "ines"
      ],
      [
        "e",
        "ch"
      ],
      [
        "e",
        "ad"
      ],
      [
        "l",
        "ight"
      ],
      [
        "l",
        "ack"
      ],
      [
        "m",
        "une"
      ],
      [
        "o",
        "k"
      ],
      [
        "is",
        "s"
      ],
      [
        "re",
        "d"
      ],
      [
        "an",
        "ge"
      ],
      [
        "it",
        "rogen"
      ],
      [
        "ol",
        "o"
      ],
      [
        "ar",
        "k"
      ],
      [
        "ar",
        "bon"
      ],
      [
        "ĠI",
        "ce"
      ],
      [
        "Ġch",
        "ange"
      ],
      [
        "Ġm",
        "us"
      ],
      [
        "Ġm",
        "ed"
      ],
      [
        "Ġe",
        "xercise"
      ],
      [
        "Ġw",
        "ill"
      ],
      [
        "Ġst",
        "ron"
      ],
      [
        "Ġli",
        "fe"
      ],
      [
        "ĠB",
        "lack"
      ],
      [
        "Ġsy",
        "st"
      ],
      [
        "ab",
        "le"
      ],
      [
        "ion",
        "s"
      ],
      [
        "ĠG",
        "reat"
      ],
      [
        "ĠG",
        "old"
      ],
      [
        "ĠH",
        "el"
      ],
      [
        "pp",
        "er"
      ],
      [
        "ac",
        "y"
      ],
      [
        "Ġ14",
        "6"
      ],
      [
        "Ġr",
        "ain"
      ],
      [
        "os",
        "p"
      ],
      [
        "Ġ12",
        "15"
      ],
      [
        "Ġprovid",
        "es"
      ],
      [
        "Ġ17",
        "7"
      ],
      [
        "art",
        "a"
      ],
      [
        "Ġinc",
        "reas"
      ],
      [
        "ĠCo",
        "pper"
      ],
      [
        "ren",
        "ch"
      ],
      [
        "Ġsun",
        "light"
      ],
      [
        "Ġvac",
        "cines"
      ],
      [
        "ĠMo",
        "on"
      ],
      [
        "Ġsyst",
        "em"
      ],
      [
        "2",
        "5"
      ],
      [
        "9",
        "2"
      ],
      [
        "a",
        "w"
      ],
      [
        "a",
        "ce"
      ],
      [
        "c",
        "o"
      ],
      [
        "c",
        "le"
      ],
      [
        "e",
        "al"
      ],
      [
        "e",
        "ct"
      ],
      [
        "e",
        "et"
      ],
      [
        "f",
        "f"
      ],
      [
        "f",
        "ace"
      ],
      [
        "g",
        "re"
      ],
      [
        "g",
        "ent"
      ],
      [
        "g",
        "ium"
      ],
      [
        "g",
        "ary"
      ],
      [
        "i",
        "v"
      ],
      [
        "i",
        "ger"
      ],
      [
        "j",
        "a"
      ],
      [
        "k",
        "ey"
      ],
      [
        "k",
        "rain"
      ],
      [
        "l",
        "in"
      ],
      [
        "m",
        "any"
      ],
      [
        "m",
        "ark"
      ],
      [
        "n",
        "s"
      ],
      [
        "n",
        "am"
      ],
      [
        "o",
        "d"
      ],
      [
        "o",
        "int"
      ],
      [
        "p",
        "ub"
      ],
      [
        "r",
        "ance"
      ],
      [
        "r",
        "gent"
      ],
      [
        "t",
        "an"
      ],
      [
        "t",
        "une"
      ],
      [
        "v",
        "ert"
      ],
      [
        "x",
        "imate"
      ],
      [
        "y",
        "a"
      ],
      [
        "z",
        "er"
      ],
      [
        "z",
        "es"
      ],
      [
        "z",
        "il"
      ],
      [
        "z",
        "ech"
      ],
      [
        "Ġ",
        "0"
      ],
      [
        "Ġ",
        "ic"
      ],
      [
        "Ġ",
        "ro"
      ],
      [
        "is",
        "tan"
      ],
      [
        "he",
        "re"
      ],
      [
        "Ġc",
        "o"
      ],
      [
        "re",
        "land"
      ],
      [
        "in",
        "land"
      ],
      [
        "er",
        "u"
      ],
      [
        "er",
        "many"
      ],
      [
        "an",
        "o"
      ],
      [
        "al",
        "ay"
      ],
      [
        "ĠT",
        "ur"
      ],
      [
        "en",
        "ue"
      ],
      [
        "en",
        "mark"
      ],
      [
        "en",
        "ya"
      ],
      [
        "ĠA",
        "l"
      ],
      [
        "ĠA",
        "rgent"
      ],
      [
        "it",
        "s"
      ],
      [
        "it",
        "zer"
      ],
      [
        "Ġo",
        "xygen"
      ],
      [
        "Ġo",
        "cean"
      ],
      [
        "id",
        "e"
      ],
      [
        "ĠS",
        "e"
      ],
      [
        "Ġa",
        "pp"
      ],
      [
        "Ġs",
        "ur"
      ],
      [
        "Ġs",
        "oil"
      ],
      [
        "Ġs",
        "pe"
      ],
      [
        "ap",
        "an"
      ],
      [
        "ro",
        "ximate"
      ],
      [
        "ol",
        "and"
      ],
      [
        "ent",
        "s"
      ],
      [
        "ar",
        "a"
      ],
      [
        "Ġre",
        "s"
      ],
      [
        "Ġp",
        "oint"
      ],
      [
        "ĠI",
        "reland"
      ],
      [
        "ĠC",
        "el"
      ],
      [
        "ĠC",
        "olo"
      ],
      [
        "ĠC",
        "zech"
      ],
      [
        "ore",
        "a"
      ],
      [
        "ĠTh",
        "ai"
      ],
      [
        "Ġm",
        "et"
      ],
      [
        "Ġm",
        "eet"
      ],
      [
        "fore",
        "st"
      ],
      [
        "Ġe",
        "lect"
      ],
      [
        "se",
        "d"
      ],
      [
        "et",
        "her"
      ],
      [
        "Ġin",
        "v"
      ],
      [
        "lan",
        "ds"
      ],
      [
        "Ġ5",
        "5"
      ],
      [
        "un",
        "t"
      ],
      [
        "un",
        "gary"
      ],
      [
        "us",
        "sia"
      ],
      [
        "Ġ3",
        "7"
      ],
      [
        "Ġ3",
        "8"
      ],
      [
        "Ġ2",
        "0"
      ],
      [
        "mb",
        "ia"
      ],
      [
        "ĠM",
        "alay"
      ],
      [
        "Ġ6",
        "0"
      ],
      [
        "Ġ6",
        "8"
      ],
      [
        "Ġ6",
        "9"
      ],
      [
        "ĠE",
        "mp"
      ],
      [
        "Ġ7",
        "3"
      ],
      [
        "Ġ7",
        "5"
      ],
      [
        "Ġ8",
        "3"
      ],
      [
        "Ġ8",
        "6"
      ],
      [
        "Ġ8",
        "9"
      ],
      [
        "Ġ9",
        "0"
      ],
      [
        "Ġ9",
        "7"
      ],
      [
        "Ġst",
        "ud"
      ],
      [
        "ĠN",
        "ep"
      ],
      [
        "ĠN",
        "iger"
      ],
      [
        "ĠN",
        "ether"
      ],
      [
        "ed",
        "en"
      ],
      [
        "Ġli",
        "gh"
      ],
      [
        "Ġ4",
        "6"
      ],
      [
        "ĠB",
        "u"
      ],
      [
        "ĠB",
        "er"
      ],
      [
        "ĠB",
        "el"
      ],
      [
        "ĠB",
        "ra"
      ],
      [
        "ĠR",
        "ussia"
      ],
      [
        "ĠP",
        "M"
      ],
      [
        "ĠP",
        "ort"
      ],
      [
        "ĠP",
        "ak"
      ],
      [
        "ĠP",
        "eru"
      ],
      [
        "ĠP",
        "oland"
      ],
      [
        "the",
        "ns"
      ],
      [
        "ĠG",
        "ermany"
      ],
      [
        "ĠU",
        "K"
      ],
      [
        "ĠU",
        "krain"
      ],
      [
        "ĠH",
        "ungary"
      ],
      [
        "Ġfact",
        "ual"
      ],
      [
        "pp",
        "ines"
      ],
      [
        "ĠD",
        "enmark"
      ],
      [
        "ther",
        "n"
      ],
      [
        "ad",
        "a"
      ],
      [
        "ec",
        "tive"
      ],
      [
        "Ġhe",
        "at"
      ],
      [
        "Ġhe",
        "art"
      ],
      [
        "ou",
        "se"
      ],
      [
        "ĠRe",
        "pub"
      ],
      [
        "Ġde",
        "gre"
      ],
      [
        "Ġim",
        "mune"
      ],
      [
        "ĠV",
        "iet"
      ],
      [
        "Ġg",
        "ravity"
      ],
      [
        "ĠCh",
        "ile"
      ],
      [
        "ĠInd",
        "ia"
      ],
      [
        "ĠInd",
        "ones"
      ],
      [
        "ĠF",
        "rance"
      ],
      [
        "ĠF",
        "inland"
      ],
      [
        "ĠJ",
        "apan"
      ],
      [
        "ĠK",
        "enya"
      ],
      [
        "ĠK",
        "orea"
      ],
      [
        "Ġ32",
        "40"
      ],
      [
        "ĠAustr",
        "ia"
      ],
      [
        "duc",
        "ation"
      ],
      [
        "ĠPh",
        "ili"
      ],
      [
        "si",
        "us"
      ],
      [
        "ug",
        "al"
      ],
      [
        "ĠZ",
        "eal"
      ],
      [
        "ĠSw",
        "itzer"
      ],
      [
        "ĠSw",
        "eden"
      ],
      [
        "enh",
        "ouse"
      ],
      [
        "ĠRoman",
        "ia"
      ],
      [
        "ĠUran",
        "us"
      ],
      [
        "Ġcomp",
        "any"
      ],
      [
        "Ġtim",
        "e"
      ],
      [
        "ĠSp",
        "ain"
      ],
      [
        "ĠSou",
        "th"
      ],
      [
        "Ġso",
        "und"
      ],
      [
        "ĠCan",
        "ada"
      ],
      [
        "Ġdr",
        "ug"
      ],
      [
        "Ġtrave",
        "ls"
      ],
      [
        "ĠNor",
        "way"
      ],
      [
        "ĠIce",
        "land"
      ],
      [
        "ff",
        "ective"
      ],
      [
        "Ġic",
        "e"
      ],
      [
        "ĠTur",
        "key"
      ],
      [
        "ĠArgent",
        "ina"
      ],
      [
        "Ġapp",
        "roximate"
      ],
      [
        "Ġsur",
        "face"
      ],
      [
        "Ġspe",
        "ed"
      ],
      [
        "ĠCel",
        "sius"
      ],
      [
        "ĠColo",
        "mbia"
      ],
      [
        "ĠThai",
        "land"
      ],
      [
        "Ġmeet",
        "ing"
      ],
      [
        "Ġelect",
        "ric"
      ],
      [
        "ĠMalay",
        "sia"
      ],
      [
        "Ġstud",
        "ents"
      ],
      [
        "ĠNep",
        "tune"
      ],
      [
        "ĠNiger",
        "ia"
      ],
      [
        "ĠNether",
        "lands"
      ],
      [
        "Ġligh",
        "t"
      ],
      [
        "ĠBel",
        "gium"
      ],
      [
        "ĠBra",
        "zil"
      ],
      [
        "ĠPort",
        "ugal"
      ],
      [
        "ĠPak",
        "istan"
      ],
      [
        "ĠUkrain",
        "e"
      ],
      [
        "ĠRepub",
        "lic"
      ],
      [
        "Ġdegre",
        "es"
      ],
      [
        "ĠViet",
        "nam"
      ],
      [
        "ĠIndones",
        "ia"
      ],
      [
        "ĠPhili",
        "ppines"
      ],
      [
        "ĠZeal",
        "and"
      ],
      [
        "ĠSwitzer",
        "land"
      ],
      [
        "Ġapproximate",
        "ly"
      ],
      [
        "8",
        "9"
      ],
      [
        "S",
        "A"
      ],
      [
        "a",
        "fe"
      ],
      [
        "a",
        "iss"
      ],
      [
        "b",
        "al"
      ],
      [
        "c",
        "tion"
      ],
      [
        "c",
        "omes"
      ],
      [
        "d",
        "ence"
      ],
      [
        "d",
        "ed"
      ],
      [
        "d",
        "ium"
      ],
      [
        "d",
        "rogen"
      ],
      [
        "e",
        "x"
      ],
      [
        "e",
        "en"
      ],
      [
        "e",
        "pen"
      ],
      [
        "f",
        "it"
      ],
      [
        "f",
        "ur"
      ],
      [
        "f",
        "fe"
      ],
      [
        "f",
        "ul"
      ],
      [
        "g",
        "in"
      ],
      [
        "g",
        "ar"
      ],
      [
        "h",
        "or"
      ],
      [
        "i",
        "al"
      ],
      [
        "i",
        "ti"
      ],
      [
        "i",
        "gin"
      ],
      [
        "l",
        "d"
      ],
      [
        "l",
        "p"
      ],
      [
        "l",
        "ar"
      ],
      [
        "l",
        "or"
      ],
      [
        "m",
        "ful"
      ],
      [
        "n",
        "ion"
      ],
      [
        "n",
        "ect"
      ],
      [
        "o",
        "ad"
      ],
      [
        "p",
        "er"
      ],
      [
        "r",
        "am"
      ],
      [
        "r",
        "int"
      ],
      [
        "r",
        "acy"
      ],
      [
        "s",
        "en"
      ],
      [
        "v",
        "iet"
      ],
      [
        "w",
        "een"
      ],
      [
        "y",
        "ment"
      ],
      [
        "y",
        "drogen"
      ],
      [
        "y",
        "ram"
      ],
      [
        "Ġ",
        "er"
      ],
      [
        "Ġ",
        "en"
      ],
      [
        "Ġ",
        "ess"
      ],
      [
        "Ġ",
        "land"
      ],
      [
        "Ġ",
        "enh"
      ],
      [
        "Ġt",
        "em"
      ],
      [
        "in",
        "c"
      ],
      [
        "in",
        "e"
      ],
      [
        "in",
        "um"
      ],
      [
        "er",
        "ic"
      ],
      [
        "an",
        "t"
      ],
      [
        "an",
        "ces"
      ],
      [
        "es",
        "ium"
      ],
      [
        "at",
        "ure"
      ],
      [
        "en",
        "ber"
      ],
      [
        "en",
        "aiss"
      ],
      [
        "ti",
        "vity"
      ],
      [
        "ĠA",
        "D"
      ],
      [
        "as",
        "t"
      ],
      [
        "as",
        "ing"
      ],
      [
        "it",
        "ain"
      ],
      [
        "it",
        "am"
      ],
      [
        "it",
        "ation"
      ],
      [
        "Ġo",
        "pport"
      ],
      [
        "Ġo",
        "ver"
      ],
      [
        "Ġo",
        "ut"
      ],
      [
        "Ġo",
        "cc"
      ],
      [
        "ĠW",
        "or"
      ],
      [
        "ĠW",
        "est"
      ],
      [
        "ĠW",
        "ill"
      ],
      [
        "ĠW",
        "all"
      ],
      [
        "Ġf",
        "ell"
      ],
      [
        "Ġf",
        "oc"
      ],
      [
        "Ġf",
        "ight"
      ],
      [
        "id",
        "s"
      ],
      [
        "ĠAn",
        "cient"
      ],
      [
        "ĠS",
        "ul"
      ],
      [
        "Ġa",
        "ffe"
      ],
      [
        "Ġs",
        "afe"
      ],
      [
        "ic",
        "on"
      ],
      [
        "Ġan",
        "cient"
      ],
      [
        "ent",
        "ed"
      ],
      [
        "Ġv",
        "oc"
      ],
      [
        "Ġv",
        "itam"
      ],
      [
        "ar",
        "mful"
      ],
      [
        "or",
        "sen"
      ],
      [
        "Ġre",
        "al"
      ],
      [
        "Ġre",
        "ad"
      ],
      [
        "Ġre",
        "duc"
      ],
      [
        "Ġp",
        "ow"
      ],
      [
        "Ġp",
        "ress"
      ],
      [
        "Ġp",
        "rint"
      ],
      [
        "Ġp",
        "yram"
      ],
      [
        "ĠI",
        "I"
      ],
      [
        "ĠI",
        "ron"
      ],
      [
        "ĠC",
        "old"
      ],
      [
        "ĠC",
        "arbon"
      ],
      [
        "ĠC",
        "arta"
      ],
      [
        "Ġm",
        "on"
      ],
      [
        "Ġm",
        "el"
      ],
      [
        "Ġm",
        "ill"
      ],
      [
        "et",
        "ween"
      ],
      [
        "Ġh",
        "armful"
      ],
      [
        "Ġw",
        "eat"
      ],
      [
        "Ġw",
        "orsen"
      ],
      [
        "un",
        "iti"
      ],
      [
        "Ġl",
        "o"
      ],
      [
        "Ġb",
        "y"
      ],
      [
        "Ġb",
        "ec"
      ],
      [
        "Ġb",
        "etween"
      ],
      [
        "ĠE",
        "ast"
      ],
      [
        "Ġor",
        "igin"
      ],
      [
        "Ġtr",
        "ade"
      ],
      [
        "ate",
        "d"
      ],
      [
        "Ġ9",
        "5"
      ],
      [
        "Ġst",
        "art"
      ],
      [
        "Ġst",
        "ress"
      ],
      [
        "ĠN",
        "itrogen"
      ],
      [
        "ĠB",
        "C"
      ],
      [
        "ch",
        "asing"
      ],
      [
        "il",
        "led"
      ],
      [
        "ur",
        "ies"
      ],
      [
        "ur",
        "red"
      ],
      [
        "ur",
        "chasing"
      ],
      [
        "ĠR",
        "oad"
      ],
      [
        "ĠR",
        "enaiss"
      ],
      [
        "Ġn",
        "ex"
      ],
      [
        "ab",
        "ul"
      ],
      [
        "um",
        "inum"
      ],
      [
        "ĠG",
        "ut"
      ],
      [
        "Ġcl",
        "imate"
      ],
      [
        "ĠU",
        "SA"
      ],
      [
        "ĠU",
        "nion"
      ],
      [
        "ĠH",
        "ydrogen"
      ],
      [
        "ĠD",
        "ec"
      ],
      [
        "ĠD",
        "em"
      ],
      [
        "ĠD",
        "eat"
      ],
      [
        "enti",
        "al"
      ],
      [
        "Ġhe",
        "lp"
      ],
      [
        "ort",
        "ant"
      ],
      [
        "Ġk",
        "illed"
      ],
      [
        "ĠL",
        "ight"
      ],
      [
        "ĠL",
        "ith"
      ],
      [
        "ĠL",
        "ead"
      ],
      [
        "Ġ14",
        "40"
      ],
      [
        "Ġcon",
        "nect"
      ],
      [
        "os",
        "ion"
      ],
      [
        "Ġsu",
        "gar"
      ],
      [
        "gn",
        "itive"
      ],
      [
        "ĠCh",
        "lor"
      ],
      [
        "ĠInd",
        "ustr"
      ],
      [
        "ĠInd",
        "epen"
      ],
      [
        "oc",
        "k"
      ],
      [
        "oc",
        "racy"
      ],
      [
        "ĠF",
        "rench"
      ],
      [
        "Ġcent",
        "uries"
      ],
      [
        "Ġ17",
        "89"
      ],
      [
        "Ġimp",
        "ortant"
      ],
      [
        "ĠO",
        "xygen"
      ],
      [
        "duc",
        "tivity"
      ],
      [
        "ĠSo",
        "und"
      ],
      [
        "ĠSo",
        "dium"
      ],
      [
        "ĠSo",
        "viet"
      ],
      [
        "ĠSil",
        "k"
      ],
      [
        "ĠSil",
        "ver"
      ],
      [
        "ĠSil",
        "icon"
      ],
      [
        "Ġwalk",
        "ing"
      ],
      [
        "Ġ47",
        "6"
      ],
      [
        "ĠPh",
        "osp"
      ],
      [
        "lo",
        "bal"
      ],
      [
        "lo",
        "yment"
      ],
      [
        "ĠZ",
        "inc"
      ],
      [
        "Ġris",
        "k"
      ],
      [
        "Ġris",
        "es"
      ],
      [
        "ĠAm",
        "eric"
      ],
      [
        "Ġ25",
        "60"
      ],
      [
        "ĠBr",
        "itain"
      ],
      [
        "ĠUran",
        "ium"
      ],
      [
        "Ġ19",
        "45"
      ],
      [
        "Ġ19",
        "69"
      ],
      [
        "Ġpro",
        "fit"
      ],
      [
        "ĠMagn",
        "a"
      ],
      [
        "ĠMagn",
        "esium"
      ],
      [
        "Ġlearn",
        "s"
      ],
      [
        "Ġlearn",
        "ing"
      ],
      [
        "Ġmus",
        "ic"
      ],
      [
        "Ġmed",
        "itation"
      ],
      [
        "Ġstron",
        "ger"
      ],
      [
        "ĠHel",
        "ium"
      ],
      [
        "Ġ177",
        "6"
      ],
      [
        "Ġincreas",
        "e"
      ],
      [
        "ĠAl",
        "uminum"
      ],
      [
        "Ġinv",
        "ented"
      ],
      [
        "ĠEmp",
        "ire"
      ],
      [
        "hor",
        "us"
      ],
      [
        "lar",
        "ation"
      ],
      [
        "per",
        "ature"
      ],
      [
        "Ġer",
        "osion"
      ],
      [
        "Ġen",
        "ded"
      ],
      [
        "Ġess",
        "ential"
      ],
      [
        "Ġland",
        "ing"
      ],
      [
        "Ġenh",
        "ances"
      ],
      [
        "Ġtem",
        "perature"
      ],
      [
        "enber",
        "g"
      ],
      [
        "Ġopport",
        "uniti"
      ],
      [
        "Ġout",
        "comes"
      ],
      [
        "Ġocc",
        "urred"
      ],
      [
        "ĠWor",
        "ld"
      ],
      [
        "Ġfoc",
        "us"
      ],
      [
        "ĠSul",
        "fur"
      ],
      [
        "Ġaffe",
        "cts"
      ],
      [
        "Ġvoc",
        "abul"
      ],
      [
        "Ġvitam",
        "in"
      ],
      [
        "Ġread",
        "ing"
      ],
      [
        "Ġreduc",
        "es"
      ],
      [
        "Ġpow",
        "er"
      ],
      [
        "Ġprint",
        "ing"
      ],
      [
        "Ġpyram",
        "ids"
      ],
      [
        "Ġmel",
        "ts"
      ],
      [
        "Ġmill",
        "ions"
      ],
      [
        "Ġweat",
        "her"
      ],
      [
        "Ġbec",
        "omes"
      ],
      [
        "Ġorigin",
        "ated"
      ],
      [
        "Ġstart",
        "ed"
      ],
      [
        "ĠRenaiss",
        "ance"
      ],
      [
        "Ġnex",
        "t"
      ],
      [
        "ĠGut",
        "enberg"
      ],
      [
        "ĠDec",
        "laration"
      ],
      [
        "ĠDem",
        "ocracy"
      ],
      [
        "ĠDeat",
        "h"
      ],
      [
        "Ġhelp",
        "s"
      ],
      [
        "ĠLith",
        "ium"
      ],
      [
        "Ġconnect",
        "ed"
      ],
      [
        "ĠChlor",
        "ine"
      ],
      [
        "ĠIndustr",
        "ial"
      ],
      [
        "ĠIndepen",
        "dence"
      ],
      [
        "ĠPhosp",
        "horus"
      ],
      [
        "ĠAmeric",
        "an"
      ],
      [
        "Ġprofit",
        "able"
      ],
      [
        "Ġopportuniti",
        "es"
      ],
      [
        "Ġvocabul",
        "ary"
      ],
      [
        "%",
        "."
      ],
      [
        "0",
        "8"
      ],
      [
        "1",
        "3"
      ],
      [
        "1",
        "4"
      ],
      [
        "1",
        "8"
      ],
      [
        "2",
        "4"
      ],
      [
        "2",
        "6"
      ],
      [
        "2",
        "7"
      ],
      [
        "3",
        "0"
      ],
      [
        "4",
        "8"
      ],
      [
        "4",
        "00"
      ],
      [
        "5",
        "1"
      ],
      [
        "5",
        "6"
      ],
      [
        "5",
        "8"
      ],
      [
        "6",
        "2"
      ],
      [
        "6",
        "3"
      ],
      [
        "6",
        "4"
      ],
      [
        "6",
        "8"
      ],
      [
        "7",
        "7"
      ],
      [
        "7",
        "92"
      ],
      [
        "8",
        "4"
      ],
      [
        "8",
        "49"
      ],
      [
        "9",
        "9"
      ],
      [
        "C",
        "ats"
      ],
      [
        "I",
        "t"
      ],
      [
        "N",
        "A"
      ],
      [
        "O",
        "ly"
      ],
      [
        "W",
        "ater"
      ],
      [
        "a",
        "g"
      ],
      [
        "a",
        "h"
      ],
      [
        "a",
        "z"
      ],
      [
        "a",
        "ci"
      ],
      [
        "a",
        "gen"
      ],
      [
        "a",
        "xy"
      ],
      [
        "b",
        "u"
      ],
      [
        "b",
        "le"
      ],
      [
        "c",
        "a"
      ],
      [
        "c",
        "y"
      ],
      [
        "c",
        "in"
      ],
      [
        "c",
        "ti"
      ],
      [
        "c",
        "id"
      ],
      [
        "c",
        "ap"
      ],
      [
        "c",
        "ow"
      ],
      [
        "c",
        "are"
      ],
      [
        "c",
        "ano"
      ],
      [
        "d",
        "ia"
      ],
      [
        "d",
        "am"
      ],
      [
        "e",
        "i"
      ],
      [
        "e",
        "u"
      ],
      [
        "e",
        "zes"
      ],
      [
        "e",
        "forest"
      ],
      [
        "e",
        "ffective"
      ],
      [
        "f",
        "l"
      ],
      [
        "f",
        "ric"
      ],
      [
        "g",
        "k"
      ],
      [
        "g",
        "est"
      ],
      [
        "g",
        "ue"
      ],
      [
        "g",
        "ot"
      ],
      [
        "g",
        "ul"
      ],
      [
        "g",
        "thens"
      ],
      [
        "h",
        "i"
      ],
      [
        "h",
        "o"
      ],
      [
        "h",
        "ol"
      ],
      [
        "h",
        "ase"
      ],
      [
        "h",
        "agen"
      ],
      [
        "i",
        "k"
      ],
      [
        "i",
        "an"
      ],
      [
        "i",
        "en"
      ],
      [
        "i",
        "tion"
      ],
      [
        "i",
        "bon"
      ],
      [
        "i",
        "ver"
      ],
      [
        "i",
        "od"
      ],
      [
        "j",
        "ing"
      ],
      [
        "k",
        "i"
      ],
      [
        "k",
        "y"
      ],
      [
        "k",
        "ill"
      ],
      [
        "k",
        "ja"
      ],
      [
        "k",
        "ara"
      ],
      [
        "l",
        "u"
      ],
      [
        "l",
        "at"
      ],
      [
        "l",
        "am"
      ],
      [
        "m",
        "o"
      ],
      [
        "m",
        "on"
      ],
      [
        "m",
        "all"
      ],
      [
        "m",
        "iss"
      ],
      [
        "m",
        "osp"
      ],
      [
        "n",
        "a"
      ],
      [
        "n",
        "y"
      ],
      [
        "n",
        "ing"
      ],
      [
        "n",
        "the"
      ],
      [
        "o",
        "th"
      ],
      [
        "o",
        "ur"
      ],
      [
        "o",
        "ts"
      ],
      [
        "o",
        "xy"
      ],
      [
        "o",
        "vert"
      ],
      [
        "o",
        "got"
      ],
      [
        "p",
        "on"
      ],
      [
        "p",
        "ur"
      ],
      [
        "p",
        "here"
      ],
      [
        "q",
        "u"
      ],
      [
        "r",
        "id"
      ],
      [
        "r",
        "ons"
      ],
      [
        "r",
        "ibon"
      ],
      [
        "s",
        "is"
      ],
      [
        "s",
        "in"
      ],
      [
        "s",
        "ity"
      ],
      [
        "s",
        "ter"
      ],
      [
        "s",
        "lo"
      ],
      [
        "s",
        "sed"
      ],
      [
        "t",
        "t"
      ],
      [
        "t",
        "on"
      ],
      [
        "t",
        "ar"
      ],
      [
        "t",
        "est"
      ],
      [
        "t",
        "ates"
      ],
      [
        "u",
        "um"
      ],
      [
        "u",
        "cle"
      ],
      [
        "v",
        "ation"
      ],
      [
        "v",
        "enue"
      ],
      [
        "v",
        "ik"
      ],
      [
        "w",
        "ar"
      ],
      [
        "x",
        "ce"
      ],
      [
        "y",
        "o"
      ],
      [
        "y",
        "iv"
      ],
      [
        "y",
        "kja"
      ],
      [
        "y",
        "nthe"
      ],
      [
        "z",
        "ed"
      ],
      [
        "z",
        "ones"
      ],
      [
        "Ġ",
        "es"
      ],
      [
        "Ġ",
        "hem"
      ],
      [
        "Ġ",
        "round"
      ],
      [
        "Ġ",
        "its"
      ],
      [
        "Ġ",
        "zones"
      ],
      [
        "is",
        "bon"
      ],
      [
        "is",
        "phere"
      ],
      [
        "Ġis",
        "land"
      ],
      [
        "Ġc",
        "ar"
      ],
      [
        "Ġc",
        "ons"
      ],
      [
        "Ġc",
        "ompare"
      ],
      [
        "Ġc",
        "old"
      ],
      [
        "Ġc",
        "arbon"
      ],
      [
        "on",
        "gest"
      ],
      [
        "re",
        "st"
      ],
      [
        "re",
        "enhouse"
      ],
      [
        "re",
        "ezes"
      ],
      [
        "re",
        "ssed"
      ],
      [
        "Ġt",
        "arn"
      ],
      [
        "Ġt",
        "ilt"
      ],
      [
        "Ġt",
        "all"
      ],
      [
        "Ġt",
        "able"
      ],
      [
        "in",
        "an"
      ],
      [
        "er",
        "ical"
      ],
      [
        "an",
        "ti"
      ],
      [
        "an",
        "il"
      ],
      [
        "an",
        "ds"
      ],
      [
        "an",
        "gk"
      ],
      [
        "es",
        "ert"
      ],
      [
        "al",
        "ly"
      ],
      [
        "al",
        "axy"
      ],
      [
        "at",
        "or"
      ],
      [
        "ĠT",
        "ok"
      ],
      [
        "ĠT",
        "rench"
      ],
      [
        "en",
        "land"
      ],
      [
        "en",
        "os"
      ],
      [
        "en",
        "cy"
      ],
      [
        "en",
        "sity"
      ],
      [
        "ĠA",
        "sia"
      ],
      [
        "ĠA",
        "ire"
      ],
      [
        "ĠA",
        "thens"
      ],
      [
        "ĠA",
        "bu"
      ],
      [
        "ĠA",
        "fric"
      ],
      [
        "as",
        "es"
      ],
      [
        "as",
        "il"
      ],
      [
        "as",
        "si"
      ],
      [
        "as",
        "sed"
      ],
      [
        "ing",
        "ton"
      ],
      [
        "ĠW",
        "ell"
      ],
      [
        "ĠW",
        "ay"
      ],
      [
        "ĠW",
        "ars"
      ],
      [
        "Ġf",
        "ar"
      ],
      [
        "Ġf",
        "unc"
      ],
      [
        "Ġf",
        "ai"
      ],
      [
        "Ġf",
        "lat"
      ],
      [
        "Ġf",
        "reezes"
      ],
      [
        "Ġf",
        "inan"
      ],
      [
        "id",
        "es"
      ],
      [
        "ĠAn",
        "kara"
      ],
      [
        "ĠAn",
        "tar"
      ],
      [
        "ĠS",
        "ah"
      ],
      [
        "ĠS",
        "anti"
      ],
      [
        "Ġa",
        "ir"
      ],
      [
        "Ġa",
        "cc"
      ],
      [
        "Ġa",
        "cid"
      ],
      [
        "Ġs",
        "ol"
      ],
      [
        "Ġs",
        "co"
      ],
      [
        "Ġs",
        "ide"
      ],
      [
        "Ġs",
        "kill"
      ],
      [
        "Ġs",
        "mall"
      ],
      [
        "ap",
        "est"
      ],
      [
        "ro",
        "ve"
      ],
      [
        "ol",
        "s"
      ],
      [
        "ol",
        "es"
      ],
      [
        "ol",
        "cano"
      ],
      [
        "Ġv",
        "olcano"
      ],
      [
        "ain",
        "s"
      ],
      [
        "ar",
        "is"
      ],
      [
        "ar",
        "ian"
      ],
      [
        "ct",
        "or"
      ],
      [
        "Ġre",
        "d"
      ],
      [
        "Ġre",
        "du"
      ],
      [
        "Ġre",
        "gul"
      ],
      [
        "Ġre",
        "mo"
      ],
      [
        "Ġp",
        "ric"
      ],
      [
        "Ġp",
        "urchasing"
      ],
      [
        "Ġp",
        "hase"
      ],
      [
        "Ġp",
        "assed"
      ],
      [
        "ĠC",
        "ity"
      ],
      [
        "ĠC",
        "ats"
      ],
      [
        "ĠC",
        "ai"
      ],
      [
        "Ġd",
        "estab"
      ],
      [
        "Ġd",
        "ay"
      ],
      [
        "Ġd",
        "ire"
      ],
      [
        "Ġd",
        "iv"
      ],
      [
        "Ġd",
        "esert"
      ],
      [
        "Ġd",
        "ensity"
      ],
      [
        "Re",
        "venue"
      ],
      [
        "Ġch",
        "arg"
      ],
      [
        "Ġm",
        "ade"
      ],
      [
        "im",
        "a"
      ],
      [
        "im",
        "its"
      ],
      [
        "Ġe",
        "ffic"
      ],
      [
        "Ġe",
        "ffici"
      ],
      [
        "Ġe",
        "mp"
      ],
      [
        "Ġe",
        "ducation"
      ],
      [
        "Ġe",
        "ffective"
      ],
      [
        "Ġe",
        "miss"
      ],
      [
        "Ġe",
        "qu"
      ],
      [
        "Ġe",
        "xce"
      ],
      [
        "se",
        "ls"
      ],
      [
        "rob",
        "i"
      ],
      [
        "Ġh",
        "um"
      ],
      [
        "Ġh",
        "oles"
      ],
      [
        "Ġin",
        "effective"
      ],
      [
        "ll",
        "ent"
      ],
      [
        "Ġw",
        "hat"
      ],
      [
        "un",
        "tr"
      ],
      [
        "Ġl",
        "ess"
      ],
      [
        "Ġl",
        "ow"
      ],
      [
        "Ġl",
        "ack"
      ],
      [
        "Ġl",
        "ongest"
      ],
      [
        "Ġl",
        "imits"
      ],
      [
        "us",
        "t"
      ],
      [
        "us",
        "sels"
      ],
      [
        "Ġb",
        "ill"
      ],
      [
        "Ġb",
        "ack"
      ],
      [
        "Ġb",
        "ones"
      ],
      [
        "Ġb",
        "rain"
      ],
      [
        "Ġb",
        "od"
      ],
      [
        "Ġb",
        "oth"
      ],
      [
        "Ġ3",
        "5"
      ],
      [
        "Ġ2",
        "3"
      ],
      [
        "Ġ2",
        "00"
      ],
      [
        "no",
        "vation"
      ],
      [
        "ĠM",
        "il"
      ],
      [
        "ĠM",
        "ad"
      ],
      [
        "ĠM",
        "ons"
      ],
      [
        "ĠM",
        "os"
      ],
      [
        "ĠM",
        "anil"
      ],
      [
        "ĠM",
        "arian"
      ],
      [
        "Ġ6",
        "3"
      ],
      [
        "Ġ6",
        "4"
      ],
      [
        "Ġ6",
        "49"
      ],
      [
        "ĠE",
        "ve"
      ],
      [
        "ĠE",
        "xercise"
      ],
      [
        "ĠE",
        "lect"
      ],
      [
        "ĠE",
        "ducation"
      ],
      [
        "Ġtr",
        "ap"
      ],
      [
        "Ġtr",
        "ain"
      ],
      [
        "Ġtr",
        "ad"
      ],
      [
        "Ġ7",
        "6"
      ],
      [
        "Ġ7",
        "9"
      ],
      [
        "Ġ8",
        "4"
      ],
      [
        "Ġ8",
        "8"
      ],
      [
        "Ġ8",
        "40"
      ],
      [
        "Ġ8",
        "58"
      ],
      [
        "Ġ9",
        "9"
      ],
      [
        "Ġst",
        "ar"
      ],
      [
        "Ġst",
        "ars"
      ],
      [
        "Ġst",
        "orm"
      ],
      [
        "Ġst",
        "ren"
      ],
      [
        "Ġst",
        "ands"
      ],
      [
        "ĠN",
        "ai"
      ],
      [
        "ĠN",
        "ile"
      ],
      [
        "ĠN",
        "eu"
      ],
      [
        "th",
        "ing"
      ],
      [
        "Ġ4",
        "1"
      ],
      [
        "Ġ4",
        "3"
      ],
      [
        "Ġ4",
        "4"
      ],
      [
        "Ġ4",
        "5"
      ],
      [
        "Ġ4",
        "9"
      ],
      [
        "ĠB",
        "ud"
      ],
      [
        "ĠB",
        "ei"
      ],
      [
        "ĠB",
        "ogot"
      ],
      [
        "ĠB",
        "angk"
      ],
      [
        "ch",
        "are"
      ],
      [
        "ve",
        "l"
      ],
      [
        "ia",
        "mon"
      ],
      [
        "ess",
        "ary"
      ],
      [
        "ss",
        "es"
      ],
      [
        "ĠR",
        "ome"
      ],
      [
        "ĠIs",
        "lam"
      ],
      [
        "fic",
        "ation"
      ],
      [
        "ĠP",
        "ra"
      ],
      [
        "ĠP",
        "aci"
      ],
      [
        "ĠP",
        "overt"
      ],
      [
        "ĠP",
        "aris"
      ],
      [
        "Ġat",
        "mosp"
      ],
      [
        "Ġn",
        "um"
      ],
      [
        "Ġn",
        "ec"
      ],
      [
        "Ġn",
        "ew"
      ],
      [
        "Ġn",
        "itrogen"
      ],
      [
        "Ġmo",
        "unt"
      ],
      [
        "ab",
        "ad"
      ],
      [
        "the",
        "st"
      ],
      [
        "ci",
        "al"
      ],
      [
        "um",
        "pur"
      ],
      [
        "Ġplanet",
        "s"
      ],
      [
        "Ġ15",
        "3"
      ],
      [
        "Ġ15",
        "4"
      ],
      [
        "Ġ15",
        "6"
      ],
      [
        "Ġ15",
        "9"
      ],
      [
        "Ġ15",
        "51"
      ],
      [
        "Ġ15",
        "84"
      ],
      [
        "ĠG",
        "ravity"
      ],
      [
        "Ġcl",
        "os"
      ],
      [
        "Ġcl",
        "assi"
      ],
      [
        "ĠH",
        "e"
      ],
      [
        "ĠH",
        "eat"
      ],
      [
        "ĠH",
        "ano"
      ],
      [
        "00",
        "0"
      ],
      [
        "ĠD",
        "el"
      ],
      [
        "ĠD",
        "ub"
      ],
      [
        "ĠD",
        "ead"
      ],
      [
        "ĠD",
        "NA"
      ],
      [
        "ĠD",
        "eforest"
      ],
      [
        "ĠD",
        "iamon"
      ],
      [
        "Ġto",
        "ols"
      ],
      [
        "ĠIn",
        "fl"
      ],
      [
        "ĠIn",
        "novation"
      ],
      [
        "ac",
        "cin"
      ],
      [
        "ou",
        "l"
      ],
      [
        "ĠSt",
        "ock"
      ],
      [
        "ort",
        "ed"
      ],
      [
        "Ġrep",
        "orted"
      ],
      [
        "Ġelement",
        "s"
      ],
      [
        "Ġatom",
        "s"
      ],
      [
        "pen",
        "hagen"
      ],
      [
        "ĠL",
        "ack"
      ],
      [
        "ĠL",
        "ond"
      ],
      [
        "ĠL",
        "isbon"
      ],
      [
        "ĠL",
        "ima"
      ],
      [
        "ĠL",
        "umpur"
      ],
      [
        "Ġr",
        "ings"
      ],
      [
        "Ġr",
        "iver"
      ],
      [
        "Ġr",
        "ust"
      ],
      [
        "Ġcon",
        "du"
      ],
      [
        "Ġcon",
        "vert"
      ],
      [
        "reas",
        "ed"
      ],
      [
        "Ġle",
        "vel"
      ],
      [
        "Ġlarg",
        "er"
      ],
      [
        "Ġbe",
        "ats"
      ],
      [
        "Ġknow",
        "led"
      ],
      [
        "tr",
        "ons"
      ],
      [
        "os",
        "ynthe"
      ],
      [
        "ĠRe",
        "d"
      ],
      [
        "ĠRe",
        "ykja"
      ],
      [
        "Ġ11",
        "0"
      ],
      [
        "Ġ11",
        "5"
      ],
      [
        "Ġ11",
        "6"
      ],
      [
        "Ġ11",
        "8"
      ],
      [
        "Ġde",
        "ep"
      ],
      [
        "Ġde",
        "oxy"
      ],
      [
        "Ġ12",
        "0"
      ],
      [
        "Ġ12",
        "6"
      ],
      [
        "Ġ12",
        "7"
      ],
      [
        "Ġ12",
        "48"
      ],
      [
        "Ġ18",
        "2"
      ],
      [
        "Ġ18",
        "7"
      ],
      [
        "ĠV",
        "ien"
      ],
      [
        "ĠV",
        "accin"
      ],
      [
        "Ġg",
        "lobal"
      ],
      [
        "Ġg",
        "lu"
      ],
      [
        "Ġg",
        "reenhouse"
      ],
      [
        "Ġg",
        "alaxy"
      ],
      [
        "Ġg",
        "ases"
      ],
      [
        "Ġper",
        "iod"
      ],
      [
        "Ġconfirm",
        "ed"
      ],
      [
        "ot",
        "osynthe"
      ],
      [
        "ĠJ",
        "ak"
      ],
      [
        "ĠK",
        "ual"
      ],
      [
        "ĠK",
        "yiv"
      ],
      [
        "Ġ13",
        "2"
      ],
      [
        "Ġ13",
        "3"
      ],
      [
        "Ġ13",
        "7"
      ],
      [
        "Ġ17",
        "64"
      ],
      [
        "Ġ53",
        "60"
      ],
      [
        "Ġ21",
        "2"
      ],
      [
        "Ġ80",
        "99"
      ],
      [
        "Ġcont",
        "ains"
      ],
      [
        "ĠGre",
        "enhouse"
      ],
      [
        "ĠGre",
        "enland"
      ],
      [
        "Ġimp",
        "rove"
      ],
      [
        "ĠO",
        "cean"
      ],
      [
        "ĠO",
        "slo"
      ],
      [
        "ĠO",
        "tt"
      ],
      [
        "Ġ10",
        "3"
      ],
      [
        "Ġ10",
        "4"
      ],
      [
        "Ġ52",
        "2"
      ],
      [
        "Ġ52",
        "92"
      ],
      [
        "Ġ30",
        "24"
      ],
      [
        "Ġ26",
        "13"
      ],
      [
        "Ġ26",
        "27"
      ],
      [
        "Ġ74",
        "00"
      ],
      [
        "Ġ74",
        "62"
      ],
      [
        "Ġ96",
        "0"
      ],
      [
        "Ġcontinent",
        "s"
      ],
      [
        "Ġ16",
        "2"
      ],
      [
        "Ġdec",
        "reased"
      ],
      [
        "Ġ47",
        "7"
      ],
      [
        "ĠPh",
        "otosynthe"
      ],
      [
        "mp",
        "us"
      ],
      [
        "si",
        "zed"
      ],
      [
        "Ġse",
        "a"
      ],
      [
        "ĠCo",
        "penhagen"
      ],
      [
        "Ġbu",
        "y"
      ],
      [
        "Ġ33",
        "63"
      ],
      [
        "Ġ36",
        "40"
      ],
      [
        "Ġ62",
        "40"
      ],
      [
        "Ġ87",
        "0"
      ],
      [
        "Ġ91",
        "2"
      ],
      [
        "Ġ40",
        "26"
      ],
      [
        "Ġris",
        "ing"
      ],
      [
        "ĠRev",
        "enue"
      ],
      [
        "ĠAm",
        "az"
      ],
      [
        "ĠAm",
        "ster"
      ],
      [
        "Ġsun",
        "ny"
      ],
      [
        "Ġvac",
        "uum"
      ],
      [
        "Ġ28",
        "08"
      ],
      [
        "ĠMo",
        "unt"
      ],
      [
        "ĠBr",
        "asil"
      ],
      [
        "ĠBr",
        "ussels"
      ],
      [
        "Ġhealth",
        "care"
      ],
      [
        "Ġno",
        "ble"
      ],
      [
        "Ġno",
        "thing"
      ],
      [
        "Ġcomp",
        "ressed"
      ],
      [
        "Ġtim",
        "es"
      ],
      [
        "ĠSp",
        "ot"
      ],
      [
        "ĠSou",
        "thern"
      ],
      [
        "Ġpro",
        "ductivity"
      ],
      [
        "ĠCan",
        "ber"
      ],
      [
        "Ġdr",
        "y"
      ],
      [
        "Ġhot",
        "ter"
      ],
      [
        "Ġhot",
        "test"
      ],
      [
        "Ġ34",
        "3"
      ],
      [
        "Ġ22",
        "25"
      ],
      [
        "Ġ22",
        "68"
      ],
      [
        "Ġ29",
        "9"
      ],
      [
        "Ġtrave",
        "l"
      ],
      [
        "ĠNor",
        "thern"
      ],
      [
        "ili",
        "zes"
      ],
      [
        "45",
        "8"
      ],
      [
        "Ġmus",
        "cle"
      ],
      [
        "Ġmed",
        "ium"
      ],
      [
        "Ġstron",
        "g"
      ],
      [
        "ĠHel",
        "sin"
      ],
      [
        "Ġrain",
        "ing"
      ],
      [
        "Ġrain",
        "forest"
      ],
      [
        "Ġincreas",
        "ed"
      ],
      [
        "aw",
        "a"
      ],
      [
        "co",
        "se"
      ],
      [
        "Ġro",
        "ots"
      ],
      [
        "Ġro",
        "tates"
      ],
      [
        "Ġco",
        "gnitive"
      ],
      [
        "Ġco",
        "untr"
      ],
      [
        "ide",
        "red"
      ],
      [
        "ĠSe",
        "a"
      ],
      [
        "ĠSe",
        "oul"
      ],
      [
        "Ġres",
        "our"
      ],
      [
        "Ġres",
        "pon"
      ],
      [
        "Ġmet",
        "al"
      ],
      [
        "Ġmet",
        "ho"
      ],
      [
        "Ġ20",
        "6"
      ],
      [
        "ĠBu",
        "enos"
      ],
      [
        "ĠBu",
        "chare"
      ],
      [
        "ĠBer",
        "n"
      ],
      [
        "ĠBer",
        "lin"
      ],
      [
        "Ġelectric",
        "ity"
      ],
      [
        "Ġmon",
        "ey"
      ],
      [
        "Ġlo",
        "sses"
      ],
      [
        "ĠLight",
        "ning"
      ],
      [
        "Oly",
        "mpus"
      ],
      [
        "ag",
        "o"
      ],
      [
        "cti",
        "ca"
      ],
      [
        "cap",
        "e"
      ],
      [
        "dia",
        "c"
      ],
      [
        "hol",
        "m"
      ],
      [
        "ition",
        "ally"
      ],
      [
        "ribon",
        "ucle"
      ],
      [
        "war",
        "ds"
      ],
      [
        "Ġes",
        "cape"
      ],
      [
        "Ġhem",
        "isphere"
      ],
      [
        "Ġcar",
        "diac"
      ],
      [
        "Ġcons",
        "idered"
      ],
      [
        "Ġcompare",
        "d"
      ],
      [
        "Ġcold",
        "est"
      ],
      [
        "Ġtarn",
        "ish"
      ],
      [
        "Ġtilt",
        "ed"
      ],
      [
        "Ġtall",
        "est"
      ],
      [
        "ĠTok",
        "yo"
      ],
      [
        "ĠAire",
        "s"
      ],
      [
        "ĠAbu",
        "ja"
      ],
      [
        "ĠAfric",
        "a"
      ],
      [
        "ĠWell",
        "ington"
      ],
      [
        "ĠWars",
        "aw"
      ],
      [
        "Ġfar",
        "thest"
      ],
      [
        "Ġfunc",
        "tion"
      ],
      [
        "Ġfai",
        "led"
      ],
      [
        "Ġfinan",
        "cial"
      ],
      [
        "ĠAntar",
        "ctica"
      ],
      [
        "ĠSah",
        "ara"
      ],
      [
        "ĠSanti",
        "ago"
      ],
      [
        "Ġacc",
        "ess"
      ],
      [
        "Ġsol",
        "ar"
      ],
      [
        "Ġsco",
        "pe"
      ],
      [
        "Ġskill",
        "s"
      ],
      [
        "Ġsmall",
        "er"
      ],
      [
        "Ġredu",
        "ce"
      ],
      [
        "Ġregul",
        "ar"
      ],
      [
        "Ġremo",
        "ving"
      ],
      [
        "Ġpric",
        "es"
      ],
      [
        "ĠCai",
        "ro"
      ],
      [
        "Ġdestab",
        "ilizes"
      ],
      [
        "Ġdire",
        "ction"
      ],
      [
        "Ġdiv",
        "ides"
      ],
      [
        "Ġcharg",
        "e"
      ],
      [
        "Ġeffic",
        "acy"
      ],
      [
        "Ġeffici",
        "ency"
      ],
      [
        "Ġemp",
        "loyment"
      ],
      [
        "Ġemiss",
        "ions"
      ],
      [
        "Ġequ",
        "ator"
      ],
      [
        "Ġexce",
        "llent"
      ],
      [
        "Ġhum",
        "an"
      ],
      [
        "Ġlow",
        "est"
      ],
      [
        "Ġbill",
        "ion"
      ],
      [
        "Ġback",
        "wards"
      ],
      [
        "Ġbod",
        "y"
      ],
      [
        "ĠMil",
        "ky"
      ],
      [
        "ĠMad",
        "rid"
      ],
      [
        "ĠMos",
        "cow"
      ],
      [
        "ĠManil",
        "a"
      ],
      [
        "ĠMarian",
        "a"
      ],
      [
        "ĠEve",
        "rest"
      ],
      [
        "ĠElect",
        "rons"
      ],
      [
        "Ġtrad",
        "itionally"
      ],
      [
        "Ġstren",
        "gthens"
      ],
      [
        "ĠNai",
        "robi"
      ],
      [
        "ĠNeu",
        "trons"
      ],
      [
        "ĠBud",
        "apest"
      ],
      [
        "ĠBei",
        "jing"
      ],
      [
        "ĠBogot",
        "a"
      ],
      [
        "ĠBangk",
        "ok"
      ],
      [
        "ĠIslam",
        "abad"
      ],
      [
        "ĠPra",
        "gue"
      ],
      [
        "ĠPaci",
        "fic"
      ],
      [
        "ĠPovert",
        "y"
      ],
      [
        "Ġatmosp",
        "here"
      ],
      [
        "Ġnum",
        "erical"
      ],
      [
        "Ġnec",
        "essary"
      ],
      [
        "Ġmount",
        "ain"
      ],
      [
        "Ġclos",
        "est"
      ],
      [
        "Ġclassi",
        "fication"
      ],
      [
        "ĠHeat",
        "ing"
      ],
      [
        "ĠHano",
        "i"
      ],
      [
        "ĠDel",
        "hi"
      ],
      [
        "ĠDub",
        "lin"
      ],
      [
        "ĠDeforest",
        "ation"
      ],
      [
        "ĠDiamon",
        "ds"
      ],
      [
        "ĠInfl",
        "ation"
      ],
      [
        "ĠStock",
        "holm"
      ],
      [
        "ĠLond",
        "on"
      ],
      [
        "Ġcondu",
        "ctor"
      ],
      [
        "Ġconvert",
        "s"
      ],
      [
        "Ġknowled",
        "ge"
      ],
      [
        "ĠReykja",
        "vik"
      ],
      [
        "Ġdeep",
        "est"
      ],
      [
        "Ġdeoxy",
        "ribonucle"
      ],
      [
        "ĠVien",
        "na"
      ],
      [
        "ĠVaccin",
        "ation"
      ],
      [
        "Ġglu",
        "cose"
      ],
      [
        "Ġperiod",
        "ic"
      ],
      [
        "ĠJak",
        "arta"
      ],
      [
        "ĠKual",
        "a"
      ],
      [
        "ĠOtt",
        "awa"
      ],
      [
        "ĠPhotosynthe",
        "sis"
      ],
      [
        "ĠAmaz",
        "on"
      ],
      [
        "ĠAmster",
        "dam"
      ],
      [
        "ĠBrasil",
        "ia"
      ],
      [
        "ĠCanber",
        "ra"
      ],
      [
        "ĠHelsin",
        "ki"
      ],
      [
        "Ġcountr",
        "y"
      ],
      [
        "Ġresour",
        "ces"
      ],
      [
        "Ġrespon",
        "se"
      ],
      [
        "Ġmetho",
        "ds"
      ],
      [
        "ĠBuchare",
        "st"
      ],
      [
        "Ġhemisphere",
        "s"
      ],
      [
        "Ġdeoxyribonucle",
        "ic"
      ],
      [
        "%",
        "'"
      ],
      [
        "%",
        "'."
      ],
      [
        "A",
        "g"
      ],
      [
        "A",
        "l"
      ],
      [
        "A",
        "u"
      ],
      [
        "A",
        "ll"
      ],
      [
        "C",
        "l"
      ],
      [
        "C",
        "u"
      ],
      [
        "F",
        "e"
      ],
      [
        "H",
        "e"
      ],
      [
        "H",
        "g"
      ],
      [
        "L",
        "i"
      ],
      [
        "L",
        "ight"
      ],
      [
        "M",
        "g"
      ],
      [
        "N",
        "a"
      ],
      [
        "P",
        "b"
      ],
      [
        "S",
        "i"
      ],
      [
        "S",
        "o"
      ],
      [
        "S",
        "ome"
      ],
      [
        "Z",
        "n"
      ],
      [
        "c",
        "ce"
      ],
      [
        "e",
        "e"
      ],
      [
        "g",
        "y"
      ],
      [
        "j",
        "ect"
      ],
      [
        "k",
        "e"
      ],
      [
        "m",
        "mune"
      ],
      [
        "n",
        "d"
      ],
      [
        "n",
        "olo"
      ],
      [
        "r",
        "d"
      ],
      [
        "y",
        "ear"
      ],
      [
        "Ġ",
        "it"
      ],
      [
        "Ġ",
        "year"
      ],
      [
        "Ġt",
        "om"
      ],
      [
        "Ġt",
        "ech"
      ],
      [
        "ĠA",
        "g"
      ],
      [
        "ĠA",
        "u"
      ],
      [
        "ĠWh",
        "o"
      ],
      [
        "ĠS",
        "i"
      ],
      [
        "ĠS",
        "oil"
      ],
      [
        "le",
        "ction"
      ],
      [
        "ro",
        "w"
      ],
      [
        "ro",
        "ductivity"
      ],
      [
        "or",
        "row"
      ],
      [
        "ĠI",
        "mmune"
      ],
      [
        "ĠC",
        "l"
      ],
      [
        "ĠC",
        "u"
      ],
      [
        "Ġm",
        "ark"
      ],
      [
        "Ġe",
        "lection"
      ],
      [
        "Ġw",
        "in"
      ],
      [
        "Ġw",
        "ee"
      ],
      [
        "ĠM",
        "g"
      ],
      [
        "est",
        "ment"
      ],
      [
        "Ġst",
        "ock"
      ],
      [
        "ĠN",
        "a"
      ],
      [
        "Ġli",
        "ke"
      ],
      [
        "ĠP",
        "b"
      ],
      [
        "ĠP",
        "urchasing"
      ],
      [
        "ĠP",
        "roductivity"
      ],
      [
        "ĠG",
        "lobal"
      ],
      [
        "ĠH",
        "g"
      ],
      [
        "ĠH",
        "ear"
      ],
      [
        "ĠL",
        "i"
      ],
      [
        "Ġsu",
        "cce"
      ],
      [
        "ĠF",
        "e"
      ],
      [
        "Ġdec",
        "ade"
      ],
      [
        "ĠZ",
        "n"
      ],
      [
        "ĠCo",
        "gnitive"
      ],
      [
        "Ġpro",
        "ject"
      ],
      [
        "Ġinv",
        "estment"
      ],
      [
        "ĠEmp",
        "loyment"
      ],
      [
        "Ġmon",
        "th"
      ],
      [
        "Ġlo",
        "ok"
      ],
      [
        "ĠHe",
        "alth"
      ],
      [
        "So",
        "und"
      ],
      [
        "nolo",
        "gy"
      ],
      [
        "Ġyear",
        "s"
      ],
      [
        "Ġtom",
        "orrow"
      ],
      [
        "Ġtech",
        "nology"
      ],
      [
        "Ġmark",
        "et"
      ],
      [
        "Ġwee",
        "k"
      ],
      [
        "ĠHear",
        "t"
      ],
      [
        "Ġsucce",
        "ed"
      ]
    ]
  }
}